unsigned char quantized_model_tflite[] = {
  0x20, 0x00, 0x00, 0x00, 0x54, 0x46, 0x4c, 0x33, 0x00, 0x00, 0x00, 0x00,
  0x14, 0x00, 0x20, 0x00, 0x1c, 0x00, 0x18, 0x00, 0x14, 0x00, 0x10, 0x00,
  0x0c, 0x00, 0x00, 0x00, 0x08, 0x00, 0x04, 0x00, 0x14, 0x00, 0x00, 0x00,
  0x1c, 0x00, 0x00, 0x00, 0x94, 0x00, 0x00, 0x00, 0xec, 0x00, 0x00, 0x00,
  0x7c, 0x16, 0x00, 0x00, 0x8c, 0x16, 0x00, 0x00, 0x34, 0x3a, 0x00, 0x00,
  0x03, 0x00, 0x00, 0x00, 0x01, 0x00, 0x00, 0x00, 0x10, 0x00, 0x00, 0x00,
  0x00, 0x00, 0x0a, 0x00, 0x10, 0x00, 0x0c, 0x00, 0x08, 0x00, 0x04, 0x00,
  0x0a, 0x00, 0x00, 0x00, 0x0c, 0x00, 0x00, 0x00, 0x1c, 0x00, 0x00, 0x00,
  0x38, 0x00, 0x00, 0x00, 0x0f, 0x00, 0x00, 0x00, 0x73, 0x65, 0x72, 0x76,
  0x69, 0x6e, 0x67, 0x5f, 0x64, 0x65, 0x66, 0x61, 0x75, 0x6c, 0x74, 0x00,
  0x01, 0x00, 0x00, 0x00, 0x04, 0x00, 0x00, 0x00, 0x94, 0xff, 0xff, 0xff,
  0x1a, 0x00, 0x00, 0x00, 0x04, 0x00, 0x00, 0x00, 0x05, 0x00, 0x00, 0x00,
  0x64, 0x65, 0x6e, 0x73, 0x65, 0x00, 0x00, 0x00, 0x01, 0x00, 0x00, 0x00,
  0x04, 0x00, 0x00, 0x00, 0x16, 0xea, 0xff, 0xff, 0x04, 0x00, 0x00, 0x00,
  0x0c, 0x00, 0x00, 0x00, 0x63, 0x6f, 0x6e, 0x76, 0x32, 0x64, 0x5f, 0x69,
  0x6e, 0x70, 0x75, 0x74, 0x00, 0x00, 0x00, 0x00, 0x02, 0x00, 0x00, 0x00,
  0x34, 0x00, 0x00, 0x00, 0x04, 0x00, 0x00, 0x00, 0xdc, 0xff, 0xff, 0xff,
  0x1d, 0x00, 0x00, 0x00, 0x04, 0x00, 0x00, 0x00, 0x13, 0x00, 0x00, 0x00,
  0x43, 0x4f, 0x4e, 0x56, 0x45, 0x52, 0x53, 0x49, 0x4f, 0x4e, 0x5f, 0x4d,
  0x45, 0x54, 0x41, 0x44, 0x41, 0x54, 0x41, 0x00, 0x08, 0x00, 0x0c, 0x00,
  0x08, 0x00, 0x04, 0x00, 0x08, 0x00, 0x00, 0x00, 0x1c, 0x00, 0x00, 0x00,
  0x04, 0x00, 0x00, 0x00, 0x13, 0x00, 0x00, 0x00, 0x6d, 0x69, 0x6e, 0x5f,
  0x72, 0x75, 0x6e, 0x74, 0x69, 0x6d, 0x65, 0x5f, 0x76, 0x65, 0x72, 0x73,
  0x69, 0x6f, 0x6e, 0x00, 0x1e, 0x00, 0x00, 0x00, 0x8c, 0x15, 0x00, 0x00,
  0x84, 0x15, 0x00, 0x00, 0x6c, 0x15, 0x00, 0x00, 0x4c, 0x15, 0x00, 0x00,
  0xbc, 0x14, 0x00, 0x00, 0xac, 0x13, 0x00, 0x00, 0x9c, 0x0b, 0x00, 0x00,
  0x0c, 0x0b, 0x00, 0x00, 0xdc, 0x09, 0x00, 0x00, 0x4c, 0x09, 0x00, 0x00,
  0x3c, 0x07, 0x00, 0x00, 0xec, 0x06, 0x00, 0x00, 0x4c, 0x06, 0x00, 0x00,
  0xfc, 0x05, 0x00, 0x00, 0x6c, 0x01, 0x00, 0x00, 0x3c, 0x01, 0x00, 0x00,
  0xe4, 0x00, 0x00, 0x00, 0xdc, 0x00, 0x00, 0x00, 0xd4, 0x00, 0x00, 0x00,
  0xcc, 0x00, 0x00, 0x00, 0xc4, 0x00, 0x00, 0x00, 0xbc, 0x00, 0x00, 0x00,
  0xb4, 0x00, 0x00, 0x00, 0xac, 0x00, 0x00, 0x00, 0xa4, 0x00, 0x00, 0x00,
  0x9c, 0x00, 0x00, 0x00, 0x94, 0x00, 0x00, 0x00, 0x8c, 0x00, 0x00, 0x00,
  0x6c, 0x00, 0x00, 0x00, 0x04, 0x00, 0x00, 0x00, 0x0a, 0xeb, 0xff, 0xff,
  0x04, 0x00, 0x00, 0x00, 0x58, 0x00, 0x00, 0x00, 0x0c, 0x00, 0x00, 0x00,
  0x08, 0x00, 0x0e, 0x00, 0x08, 0x00, 0x04, 0x00, 0x08, 0x00, 0x00, 0x00,
  0x10, 0x00, 0x00, 0x00, 0x28, 0x00, 0x00, 0x00, 0x00, 0x00, 0x06, 0x00,
  0x08, 0x00, 0x04, 0x00, 0x06, 0x00, 0x00, 0x00, 0x04, 0x00, 0x00, 0x00,
  0x01, 0x00, 0x00, 0x00, 0xeb, 0x03, 0x00, 0x00, 0x00, 0x00, 0x0a, 0x00,
  0x10, 0x00, 0x0c, 0x00, 0x08, 0x00, 0x04, 0x00, 0x0a, 0x00, 0x00, 0x00,
  0x02, 0x00, 0x00, 0x00, 0x02, 0x00, 0x00, 0x00, 0x04, 0x00, 0x00, 0x00,
  0x06, 0x00, 0x00, 0x00, 0x32, 0x2e, 0x31, 0x30, 0x2e, 0x30, 0x00, 0x00,
  0x6e, 0xeb, 0xff, 0xff, 0x04, 0x00, 0x00, 0x00, 0x10, 0x00, 0x00, 0x00,
  0x31, 0x2e, 0x31, 0x34, 0x2e, 0x30, 0x00, 0x00, 0x00, 0x00, 0x00, 0x00,
  0x00, 0x00, 0x00, 0x00, 0xac, 0xc8, 0xff, 0xff, 0xb0, 0xc8, 0xff, 0xff,
  0xb4, 0xc8, 0xff, 0xff, 0xb8, 0xc8, 0xff, 0xff, 0xbc, 0xc8, 0xff, 0xff,
  0xc0, 0xc8, 0xff, 0xff, 0xc4, 0xc8, 0xff, 0xff, 0xc8, 0xc8, 0xff, 0xff,
  0xcc, 0xc8, 0xff, 0xff, 0xd0, 0xc8, 0xff, 0xff, 0xd4, 0xc8, 0xff, 0xff,
  0xb6, 0xeb, 0xff, 0xff, 0x04, 0x00, 0x00, 0x00, 0x48, 0x00, 0x00, 0x00,
  0xc0, 0x14, 0x33, 0x16, 0x2e, 0xe0, 0x46, 0xc5, 0x81, 0x3d, 0xe6, 0x34,
  0x7f, 0x18, 0x51, 0x5c, 0xf3, 0x40, 0x33, 0x14, 0xd8, 0x66, 0x3f, 0x19,
  0x7f, 0x44, 0x2c, 0x17, 0x16, 0x62, 0x3b, 0x71, 0x7f, 0x35, 0x4f, 0x62,
  0x5b, 0x32, 0x00, 0x7f, 0x4c, 0x19, 0x68, 0x29, 0x0b, 0x06, 0xe6, 0x81,
  0x62, 0x4d, 0xbb, 0xf6, 0xdf, 0x81, 0x86, 0xc5, 0x56, 0x7f, 0xfe, 0x0b,
  0xee, 0x4f, 0x9a, 0x19, 0x55, 0xe6, 0x81, 0x0e, 0x5a, 0x79, 0xf5, 0xef,
  0x0a, 0xec, 0xff, 0xff, 0x04, 0x00, 0x00, 0x00, 0x20, 0x00, 0x00, 0x00,
  0xbd, 0xff, 0xff, 0xff, 0xe8, 0xfe, 0xff, 0xff, 0xfc, 0x03, 0x00, 0x00,
  0xca, 0x00, 0x00, 0x00, 0x1e, 0x00, 0x00, 0x00, 0x70, 0x0c, 0x00, 0x00,
  0xd4, 0x36, 0x00, 0x00, 0xde, 0x16, 0x00, 0x00, 0x36, 0xec, 0xff, 0xff,
  0x04, 0x00, 0x00, 0x00, 0x80, 0x04, 0x00, 0x00, 0x26, 0x08, 0x14, 0x16,
  0x1c, 0x03, 0xfe, 0x06, 0x1c, 0x0e, 0x0d, 0x1e, 0x17, 0x02, 0x01, 0x00,
  0x60, 0xf7, 0xfd, 0xf6, 0x03, 0x04, 0xfc, 0xf6, 0xfc, 0x14, 0x1b, 0x20,
  0x29, 0xfd, 0xfc, 0x07, 0x27, 0x16, 0x10, 0x25, 0x1c, 0x03, 0xfe, 0x06,
  0x52, 0xfa, 0x04, 0xfb, 0x0f, 0x00, 0xf7, 0xfa, 0xe4, 0x00, 0x08, 0x11,
  0x15, 0xfe, 0xff, 0x04, 0x55, 0x0d, 0x0f, 0x1e, 0x18, 0x08, 0xfe, 0x03,
  0x7f, 0xec, 0xf5, 0xe5, 0xfd, 0x02, 0xfa, 0xf5, 0x2c, 0xe5, 0xf1, 0x02,
  0xef, 0xeb, 0xff, 0x09, 0x34, 0xfa, 0x0a, 0xf7, 0x0a, 0x0c, 0xfa, 0xfd,
  0x0b, 0x28, 0xf3, 0x01, 0x01, 0xef, 0xef, 0xec, 0x4b, 0x02, 0x04, 0x0a,
  0x04, 0x06, 0x0e, 0x15, 0x61, 0x0b, 0x1a, 0xef, 0x14, 0x17, 0x0b, 0x09,
  0x23, 0x25, 0xe6, 0xc8, 0x9c, 0x00, 0x05, 0x01, 0x7f, 0xff, 0x07, 0x13,
  0x0b, 0x00, 0xfe, 0x06, 0x65, 0xed, 0xf5, 0xc5, 0xf0, 0x03, 0xf9, 0xf2,
  0xc1, 0x31, 0xf7, 0xfe, 0xfa, 0xe7, 0xee, 0xf3, 0x7f, 0x08, 0x09, 0x0b,
  0x02, 0x6b, 0x17, 0x22, 0x3a, 0xf7, 0x06, 0xf3, 0x04, 0x2c, 0x07, 0x0a,
  0xf5, 0xf1, 0x01, 0xf3, 0xfe, 0xcc, 0xfa, 0xfc, 0x39, 0x09, 0x03, 0x0a,
  0x05, 0x63, 0x07, 0x17, 0x04, 0x04, 0x14, 0x04, 0x09, 0x21, 0x04, 0x18,
  0x5d, 0x01, 0x08, 0xfe, 0x07, 0xfd, 0x0b, 0x08, 0x45, 0xf4, 0xe6, 0xee,
  0xe4, 0x31, 0x0a, 0x07, 0x1f, 0x00, 0x02, 0xfd, 0x02, 0xf8, 0x0a, 0x1e,
  0x32, 0x04, 0x07, 0x02, 0x0b, 0xf9, 0x0e, 0x15, 0xbc, 0xfb, 0x06, 0x05,
  0x0e, 0xff, 0xff, 0xfc, 0xec, 0xf2, 0x00, 0x08, 0x03, 0xfe, 0xfe, 0xfe,
  0x0b, 0xfe, 0x04, 0x0c, 0x06, 0x07, 0x01, 0x04, 0x81, 0x12, 0x16, 0x20,
  0x25, 0x03, 0x01, 0x05, 0xdf, 0x00, 0x0e, 0x1e, 0x19, 0x02, 0x00, 0x00,
  0x07, 0x0a, 0x17, 0x18, 0x1d, 0x05, 0xfe, 0x01, 0x99, 0xf4, 0x00, 0xfe,
  0x05, 0x05, 0xfd, 0xff, 0x04, 0xe6, 0xfb, 0xfc, 0xff, 0x04, 0xff, 0x01,
  0xef, 0xf2, 0xfc, 0xfd, 0x02, 0x07, 0x00, 0xff, 0xde, 0x00, 0x16, 0x0f,
  0x0a, 0x32, 0x18, 0x1f, 0x00, 0x05, 0x1a, 0x0c, 0x04, 0x30, 0x20, 0x1d,
  0x1d, 0x14, 0x22, 0x2a, 0x14, 0x30, 0x22, 0x29, 0x7f, 0xe9, 0x0c, 0xf9,
  0xfd, 0x26, 0x16, 0x20, 0x16, 0xf2, 0x06, 0xf5, 0xf5, 0x25, 0x16, 0x13,
  0x50, 0xf1, 0xfa, 0x08, 0xf0, 0x2b, 0x1e, 0x1c, 0x38, 0x01, 0x25, 0x1d,
  0x1b, 0x30, 0x1a, 0x20, 0x02, 0x04, 0x1c, 0x11, 0x0c, 0x2f, 0x1c, 0x1f,
  0x4a, 0x08, 0x18, 0x18, 0x0a, 0x34, 0x17, 0x19, 0x81, 0xf0, 0xf0, 0x02,
  0xe4, 0xee, 0x0a, 0x0f, 0x62, 0xf0, 0x06, 0xf9, 0x11, 0xf8, 0x05, 0x01,
  0x69, 0x1a, 0x13, 0x27, 0x24, 0xd3, 0xfd, 0x11, 0xb6, 0xfe, 0x09, 0x02,
  0xff, 0xd9, 0xfe, 0x13, 0x56, 0x09, 0x07, 0x11, 0x0e, 0xd1, 0x12, 0x16,
  0x60, 0x0d, 0x02, 0x30, 0x11, 0xc3, 0xf6, 0x0e, 0x2b, 0x0e, 0x06, 0x0d,
  0x05, 0xf6, 0x12, 0x11, 0x7b, 0x05, 0x03, 0x16, 0x1f, 0xe7, 0x06, 0x0d,
  0x6c, 0x18, 0xf7, 0x22, 0x07, 0xcc, 0x00, 0x11, 0xb6, 0x09, 0x07, 0x11,
  0x00, 0x26, 0xf5, 0xfb, 0xdd, 0x11, 0x18, 0x11, 0x15, 0x7f, 0xfb, 0xf7,
  0xec, 0xfe, 0xf6, 0x04, 0xf5, 0x4a, 0xf5, 0xf3, 0x8a, 0x00, 0xf9, 0xf8,
  0xf7, 0x08, 0xf1, 0xf1, 0x8f, 0x0a, 0x0b, 0xfc, 0x0d, 0x36, 0xf4, 0xeb,
  0xb0, 0xfc, 0xfa, 0xfd, 0xeb, 0x2e, 0xec, 0xf6, 0xb1, 0x07, 0x06, 0x09,
  0xff, 0x26, 0xec, 0x00, 0xbf, 0x12, 0x0b, 0x00, 0x14, 0x6e, 0xfc, 0xed,
  0x05, 0xf1, 0xf0, 0xf6, 0xf3, 0x55, 0xf8, 0xef, 0xd5, 0x09, 0xef, 0xf6,
  0x01, 0x12, 0x03, 0x01, 0xf8, 0x3d, 0x20, 0x14, 0x10, 0x2c, 0x14, 0x0e,
  0xcc, 0x2b, 0x0d, 0x1b, 0x10, 0x1e, 0x16, 0x10, 0x02, 0xfc, 0xf2, 0xdc,
  0xe2, 0x0e, 0x04, 0xf2, 0xcb, 0x1b, 0xfe, 0xf8, 0x0b, 0x0f, 0x01, 0x10,
  0x86, 0x02, 0xfe, 0xfb, 0xef, 0x1f, 0x10, 0xfe, 0x09, 0x15, 0x05, 0xf9,
  0xf6, 0x15, 0x04, 0x04, 0xc8, 0x29, 0x0e, 0x0f, 0x0e, 0x33, 0x0b, 0x0c,
  0x81, 0x23, 0x1d, 0x21, 0x06, 0x3a, 0x11, 0x13, 0x01, 0x0b, 0x11, 0x1d,
  0x19, 0xaf, 0x12, 0x18, 0x9b, 0xfe, 0x06, 0xf6, 0xfa, 0x88, 0x08, 0xff,
  0xf3, 0x10, 0x00, 0x0e, 0xfb, 0xcc, 0x12, 0x1f, 0x9a, 0x14, 0x13, 0x0f,
  0x11, 0xa8, 0x0c, 0x12, 0xf4, 0x07, 0x0c, 0x11, 0x08, 0x89, 0x09, 0x14,
  0x4c, 0x1a, 0x00, 0x1e, 0x10, 0xd3, 0x05, 0x0e, 0x4f, 0xfe, 0x0d, 0x01,
  0x11, 0xa5, 0x05, 0x07, 0x7f, 0xfe, 0x01, 0x1b, 0x1c, 0x99, 0x17, 0x19,
  0x60, 0x17, 0x02, 0x1c, 0x07, 0xd1, 0x06, 0x12, 0x1e, 0x02, 0x08, 0x08,
  0x05, 0xbb, 0x05, 0x11, 0x2b, 0x05, 0x02, 0x0c, 0x09, 0xb4, 0x0d, 0x14,
  0x30, 0x10, 0x03, 0x06, 0x02, 0xd4, 0x0b, 0x0c, 0x48, 0x04, 0xfe, 0xfc,
  0x02, 0xc6, 0x04, 0x17, 0x7f, 0xfc, 0x02, 0xff, 0x0d, 0xc7, 0x0e, 0x18,
  0x29, 0x05, 0x05, 0x03, 0x08, 0xd3, 0x0f, 0x0e, 0x2e, 0x08, 0xfe, 0x04,
  0x0a, 0xc3, 0x09, 0x02, 0x74, 0xf3, 0xf6, 0xff, 0xf4, 0xc6, 0x05, 0x08,
  0xee, 0xff, 0xf3, 0x03, 0xfb, 0xbf, 0xfe, 0x03, 0x1f, 0x11, 0x0e, 0x0c,
  0x12, 0xd1, 0x02, 0x0b, 0x29, 0xfa, 0x04, 0x09, 0x04, 0xcd, 0x00, 0x0e,
  0xfd, 0xfe, 0x02, 0x08, 0x04, 0xb5, 0x00, 0x0a, 0x51, 0xfb, 0xfb, 0x06,
  0xfa, 0xd8, 0x05, 0x0e, 0xdb, 0x00, 0x03, 0xfa, 0xfa, 0xd3, 0x0e, 0x07,
  0x7f, 0xff, 0xf8, 0x0d, 0x0a, 0xcd, 0x0c, 0x10, 0xfe, 0xf9, 0xf0, 0xed,
  0xf0, 0xc8, 0xff, 0x08, 0x43, 0xfe, 0xf9, 0xfc, 0x04, 0xbe, 0x05, 0x02,
  0x51, 0xff, 0xfc, 0x04, 0x05, 0xdb, 0xfc, 0xf7, 0xca, 0x1a, 0x13, 0x1d,
  0x18, 0x18, 0xf5, 0x0a, 0xb2, 0x13, 0x11, 0x04, 0x12, 0x26, 0x00, 0x02,
  0xc9, 0x0a, 0x0c, 0x0b, 0x09, 0x14, 0xf9, 0xff, 0xa8, 0x02, 0x06, 0x08,
  0x08, 0x06, 0xf5, 0xff, 0x81, 0x06, 0x06, 0xf5, 0x02, 0x0c, 0xf5, 0xf0,
  0xbe, 0x03, 0xfe, 0x05, 0xfa, 0xfe, 0xf0, 0xee, 0xb8, 0x15, 0x19, 0x16,
  0x17, 0x0a, 0xf4, 0x03, 0x82, 0x06, 0x10, 0x0c, 0x09, 0x23, 0x01, 0x00,
  0xcc, 0x03, 0x00, 0x03, 0xfd, 0x13, 0xf6, 0xfe, 0x90, 0x22, 0x1c, 0x08,
  0x12, 0xff, 0x0f, 0x0e, 0x01, 0xef, 0x0c, 0x20, 0x13, 0xf0, 0x0f, 0x15,
  0x7f, 0xf4, 0x11, 0xfc, 0x1b, 0xfd, 0x06, 0x05, 0xdc, 0x38, 0x34, 0x21,
  0x3d, 0x14, 0x13, 0x19, 0x6f, 0xf0, 0x0f, 0x23, 0x16, 0x00, 0x0d, 0x1e,
  0x1f, 0xf5, 0x12, 0xfe, 0x12, 0x04, 0x07, 0x01, 0xcf, 0x26, 0x16, 0x15,
  0x1a, 0x16, 0x10, 0x01, 0x28, 0xf2, 0x06, 0x14, 0x09, 0xfe, 0x0c, 0x10,
  0x4d, 0xe7, 0x0d, 0xf5, 0x0d, 0xfd, 0x0a, 0x0b, 0xd0, 0xf5, 0xed, 0xf6,
  0xe9, 0x07, 0xfd, 0xfe, 0x39, 0x0c, 0x0d, 0x10, 0x0b, 0x12, 0x05, 0x06,
  0x00, 0x1b, 0x10, 0x0d, 0x0d, 0x20, 0x01, 0x08, 0x21, 0xee, 0xdc, 0xf2,
  0xde, 0xff, 0x01, 0xf8, 0x64, 0x05, 0x02, 0x01, 0x04, 0x05, 0x00, 0x02,
  0xdb, 0x10, 0x08, 0x0b, 0x04, 0x12, 0xff, 0x05, 0x37, 0xf8, 0xf7, 0x00,
  0xf3, 0x09, 0x03, 0x03, 0x7f, 0x0f, 0x18, 0x06, 0x13, 0x29, 0x01, 0x08,
  0xc3, 0x17, 0x0c, 0x13, 0x04, 0x1b, 0x00, 0x08, 0xe6, 0x73, 0x6c, 0x71,
  0x69, 0x1c, 0x16, 0x45, 0xe2, 0x3a, 0x45, 0x4f, 0x4f, 0x2b, 0x2c, 0x38,
  0xe4, 0x25, 0x4e, 0x5f, 0x55, 0xb3, 0x1b, 0x23, 0x04, 0x68, 0x77, 0x5d,
  0x71, 0x1a, 0x29, 0x41, 0xba, 0x1a, 0x30, 0x3a, 0x3e, 0xf0, 0x1e, 0x32,
  0xb5, 0x16, 0x42, 0x5d, 0x4b, 0xc1, 0x14, 0x19, 0x1f, 0x76, 0x76, 0x5f,
  0x71, 0x38, 0x28, 0x39, 0x81, 0x23, 0x3a, 0x38, 0x35, 0x03, 0x2a, 0x22,
  0xc3, 0xed, 0x46, 0x4b, 0x3d, 0xc3, 0x12, 0x24, 0x6c, 0xf6, 0xf8, 0xfb,
  0xfa, 0x09, 0x0a, 0x04, 0x55, 0xfa, 0xfc, 0xf7, 0xf9, 0x12, 0x03, 0x02,
  0x7f, 0xf8, 0x00, 0x0b, 0x0a, 0x04, 0x0a, 0x10, 0x10, 0xf6, 0xfd, 0x06,
  0xf8, 0x00, 0x06, 0x0d, 0x46, 0xf5, 0xff, 0xf9, 0xff, 0x08, 0x03, 0xfd,
  0x7f, 0xf1, 0xff, 0x09, 0xfb, 0xfd, 0x06, 0xff, 0xdd, 0xf5, 0xfe, 0x02,
  0xfd, 0x08, 0x05, 0x04, 0xd7, 0xf6, 0xf6, 0xfc, 0xf0, 0x09, 0x03, 0x01,
  0x63, 0xec, 0xfb, 0x03, 0x01, 0x03, 0x02, 0xfc, 0xc2, 0xf0, 0xff, 0xff,
  0x04, 0x00, 0x00, 0x00, 0x40, 0x00, 0x00, 0x00, 0xc8, 0xff, 0xff, 0xff,
  0x0c, 0x01, 0x00, 0x00, 0x23, 0xfe, 0xff, 0xff, 0x10, 0x00, 0x00, 0x00,
  0x7d, 0x03, 0x00, 0x00, 0x82, 0x00, 0x00, 0x00, 0xd3, 0xfe, 0xff, 0xff,
  0x77, 0x00, 0x00, 0x00, 0x70, 0x01, 0x00, 0x00, 0x11, 0x01, 0x00, 0x00,
  0xcf, 0xff, 0xff, 0xff, 0x71, 0xff, 0xff, 0xff, 0xd8, 0x01, 0x00, 0x00,
  0x1b, 0x00, 0x00, 0x00, 0x02, 0x03, 0x00, 0x00, 0x3c, 0x00, 0x00, 0x00,
  0x0e, 0xf1, 0xff, 0xff, 0x04, 0x00, 0x00, 0x00, 0x90, 0x00, 0x00, 0x00,
  0xdf, 0x33, 0xd6, 0xe4, 0x43, 0xf4, 0x56, 0x56, 0x58, 0x7f, 0x41, 0x18,
  0x0a, 0xc8, 0x31, 0x89, 0xf2, 0x1a, 0xb7, 0xfc, 0x2b, 0x00, 0x65, 0x17,
  0x45, 0x14, 0x6a, 0x3e, 0x5c, 0x4a, 0x23, 0x81, 0x36, 0x00, 0xf3, 0x0d,
  0x7f, 0x7f, 0x29, 0xb4, 0x0b, 0x71, 0x7f, 0x47, 0x9a, 0xf0, 0xb2, 0xcc,
  0x81, 0x7f, 0x9e, 0x81, 0xe2, 0xe1, 0x48, 0x5d, 0x31, 0x3a, 0x59, 0xd6,
  0xe0, 0x81, 0x1b, 0x92, 0xce, 0x50, 0xa3, 0xc3, 0xc3, 0x46, 0x7f, 0xf8,
  0x31, 0x2a, 0x54, 0x4f, 0x22, 0x31, 0x0d, 0x8c, 0xeb, 0x23, 0x0b, 0x86,
  0x2f, 0x77, 0x41, 0xb8, 0x27, 0x0e, 0x7c, 0x37, 0xa7, 0xc9, 0x81, 0xc9,
  0xf1, 0x0d, 0x81, 0xb3, 0x28, 0xd7, 0x40, 0x7f, 0x7f, 0x5d, 0xee, 0x25,
  0xef, 0xe4, 0x1e, 0x98, 0x0e, 0xf0, 0x88, 0xc9, 0x2e, 0x1d, 0x62, 0xec,
  0x6c, 0x5b, 0x12, 0x7f, 0x30, 0x4f, 0x1c, 0x86, 0x2a, 0xea, 0x02, 0x0c,
  0x52, 0x5b, 0x26, 0x24, 0x64, 0x71, 0x43, 0x52, 0x81, 0x08, 0xe0, 0xb7,
  0xaa, 0xf1, 0xff, 0xff, 0x04, 0x00, 0x00, 0x00, 0x40, 0x00, 0x00, 0x00,
  0x00, 0x00, 0x00, 0x00, 0x00, 0x00, 0x00, 0x00, 0x00, 0x00, 0x00, 0x00,
  0x00, 0x00, 0x00, 0x00, 0x00, 0x00, 0x00, 0x00, 0x00, 0x00, 0x00, 0x00,
  0x00, 0x00, 0x00, 0x00, 0x00, 0x00, 0x00, 0x00, 0x00, 0x00, 0x00, 0x00,
  0x00, 0x00, 0x00, 0x00, 0x00, 0x00, 0x00, 0x00, 0x00, 0x00, 0x00, 0x00,
  0x00, 0x00, 0x00, 0x00, 0x00, 0x00, 0x00, 0x00, 0x00, 0x00, 0x00, 0x00,
  0x00, 0x00, 0x00, 0x00, 0xf6, 0xf1, 0xff, 0xff, 0x04, 0x00, 0x00, 0x00,
  0x00, 0x02, 0x00, 0x00, 0xe0, 0x3c, 0xe4, 0x06, 0x05, 0xde, 0x7f, 0x35,
  0xf5, 0xed, 0xda, 0xf6, 0x19, 0x9f, 0x66, 0x5e, 0xd1, 0xbc, 0x00, 0xe1,
  0x04, 0x19, 0x7f, 0x0f, 0x05, 0xfe, 0xda, 0x1c, 0x0a, 0x50, 0xe9, 0x7b,
  0xe9, 0x38, 0x23, 0xfa, 0x10, 0x03, 0x4f, 0x05, 0xfd, 0xea, 0x09, 0x10,
  0x10, 0xd2, 0x7f, 0x1a, 0xf5, 0xf5, 0x31, 0xec, 0xee, 0xb3, 0xe2, 0x0b,
  0x27, 0x04, 0xf1, 0xf4, 0x7f, 0xff, 0x4c, 0x97, 0x0c, 0x7f, 0xf6, 0x13,
  0x2a, 0x2a, 0x9a, 0x00, 0x22, 0x35, 0x23, 0x11, 0xf9, 0xb4, 0xda, 0xcd,
  0xe8, 0x79, 0xf5, 0x05, 0x05, 0xec, 0x11, 0x17, 0x0d, 0x16, 0xfc, 0x07,
  0x55, 0xd6, 0x4f, 0x81, 0x1d, 0x71, 0xf7, 0xf4, 0x18, 0x1e, 0x81, 0x0d,
  0x12, 0x14, 0x1b, 0xfa, 0xe5, 0x13, 0xdd, 0xc1, 0xe1, 0xbf, 0xf6, 0xe3,
  0x1b, 0x13, 0x7f, 0xfb, 0xe4, 0xeb, 0x08, 0x23, 0xe3, 0x53, 0x04, 0x22,
  0x1b, 0xf8, 0xf1, 0xd9, 0x2f, 0x18, 0x96, 0x10, 0x22, 0x3e, 0x42, 0x1c,
  0xed, 0xfa, 0x49, 0x81, 0x10, 0x7f, 0x53, 0xe3, 0x06, 0x26, 0x8d, 0xf6,
  0x3a, 0x4d, 0x1b, 0x32, 0xf0, 0x10, 0xdc, 0x51, 0x36, 0x47, 0xed, 0x3d,
  0xea, 0xe7, 0xf4, 0x02, 0xe7, 0x09, 0x1b, 0x09, 0x7f, 0x0f, 0x32, 0x00,
  0x08, 0x81, 0x06, 0xfc, 0x01, 0x04, 0x1c, 0xfe, 0xf9, 0xf8, 0xfe, 0x09,
  0x00, 0xeb, 0xf6, 0x0e, 0x59, 0x7f, 0x10, 0x3c, 0xd1, 0xf0, 0xe1, 0x0b,
  0x21, 0x2b, 0xe1, 0x59, 0x27, 0xcb, 0x3c, 0x12, 0x07, 0x05, 0xea, 0xf6,
  0x25, 0x0e, 0x8b, 0x13, 0x2b, 0x48, 0x2e, 0x0b, 0xd8, 0xe6, 0x39, 0x81,
  0x0b, 0x03, 0xe2, 0xe0, 0x03, 0xf5, 0xb2, 0x1a, 0x31, 0x25, 0x1b, 0x01,
  0xf3, 0x0d, 0x29, 0x81, 0xf3, 0x81, 0x18, 0xfc, 0x2e, 0x12, 0xd9, 0xf8,
  0x33, 0x30, 0x16, 0x24, 0x10, 0xf3, 0x56, 0xd4, 0xe1, 0xdb, 0x42, 0xee,
  0x16, 0xfa, 0x2c, 0xf4, 0x10, 0x0d, 0xfe, 0xfd, 0x04, 0xfa, 0x1a, 0x7f,
  0xc8, 0xc1, 0xd4, 0xeb, 0x12, 0x26, 0x7f, 0xf5, 0xe4, 0xca, 0xf8, 0x24,
  0xfa, 0x62, 0xf0, 0x79, 0x0f, 0x42, 0x8e, 0x09, 0xe0, 0x9f, 0x06, 0x1a,
  0xa2, 0xb4, 0x81, 0xe8, 0x6a, 0x98, 0x24, 0x45, 0xfa, 0x6a, 0xfc, 0xfa,
  0x08, 0x15, 0x81, 0xfe, 0x16, 0x23, 0x1c, 0xed, 0xd8, 0xee, 0xd2, 0xa0,
  0xf8, 0xdb, 0x0e, 0xd4, 0x27, 0x12, 0x7f, 0x03, 0xd8, 0xdb, 0xff, 0x33,
  0xf9, 0x38, 0x03, 0x2a, 0xc5, 0xec, 0x14, 0xfa, 0x10, 0x29, 0x7f, 0xec,
  0xf3, 0xe6, 0xf0, 0x1f, 0xd3, 0x55, 0xfb, 0x7b, 0x1a, 0x7f, 0xff, 0xff,
  0x28, 0xf7, 0x82, 0x12, 0x0c, 0x36, 0x15, 0xfd, 0xf3, 0xf4, 0xd2, 0xb6,
  0xf4, 0x7f, 0xca, 0xfd, 0x08, 0x0c, 0xd8, 0x18, 0x13, 0x11, 0x09, 0x0e,
  0xf5, 0xe7, 0x0e, 0x8d, 0xed, 0xd6, 0xa4, 0xfe, 0x23, 0x0a, 0x7f, 0x28,
  0xd2, 0xe7, 0x04, 0x19, 0xfb, 0x44, 0xf5, 0xb4, 0xc8, 0xae, 0xf7, 0xf5,
  0x11, 0xf5, 0x7f, 0xf5, 0x00, 0xd2, 0xd8, 0x19, 0xe8, 0x50, 0xef, 0x68,
  0xe4, 0x63, 0xe3, 0x0f, 0xd9, 0x1a, 0xd6, 0xe5, 0xea, 0x08, 0x29, 0xd5,
  0xe6, 0xc3, 0xee, 0x81, 0xf5, 0x31, 0xd8, 0xff, 0x0f, 0x1c, 0xd7, 0x17,
  0x1c, 0x12, 0x1d, 0x00, 0xe5, 0xe9, 0x1e, 0x81, 0x11, 0x5a, 0xbd, 0xf2,
  0x15, 0x01, 0xb7, 0x0e, 0x0c, 0x10, 0x23, 0xf6, 0xe8, 0xcb, 0xfe, 0x81,
  0x0c, 0xc8, 0xbf, 0x06, 0x00, 0x07, 0xd7, 0x06, 0xfe, 0x0a, 0x11, 0xf9,
  0xeb, 0xe8, 0xf7, 0x81, 0x08, 0x60, 0xd1, 0x07, 0x27, 0x28, 0x98, 0xf4,
  0x25, 0x21, 0x32, 0xe8, 0xe6, 0xc7, 0xef, 0x81, 0x16, 0x3d, 0x47, 0xd8,
  0x2b, 0x09, 0x81, 0x23, 0x4f, 0x1c, 0x1a, 0x32, 0xe9, 0x14, 0xab, 0x50,
  0x02, 0xf4, 0xff, 0xff, 0x04, 0x00, 0x00, 0x00, 0x80, 0x00, 0x00, 0x00,
  0x9d, 0x00, 0x00, 0x00, 0x77, 0xff, 0xff, 0xff, 0xce, 0x01, 0x00, 0x00,
  0xe9, 0xff, 0xff, 0xff, 0x4c, 0x01, 0x00, 0x00, 0x7c, 0x01, 0x00, 0x00,
  0xd4, 0x00, 0x00, 0x00, 0x4e, 0x00, 0x00, 0x00, 0x13, 0x01, 0x00, 0x00,
  0x2c, 0x01, 0x00, 0x00, 0x92, 0x00, 0x00, 0x00, 0xf7, 0xff, 0xff, 0xff,
  0xd7, 0x00, 0x00, 0x00, 0x0a, 0x01, 0x00, 0x00, 0xb9, 0x00, 0x00, 0x00,
  0x31, 0x01, 0x00, 0x00, 0x1f, 0x01, 0x00, 0x00, 0x38, 0xff, 0xff, 0xff,
  0x35, 0xff, 0xff, 0xff, 0x98, 0x00, 0x00, 0x00, 0xe3, 0xff, 0xff, 0xff,
  0x85, 0xff, 0xff, 0xff, 0xca, 0x00, 0x00, 0x00, 0xfc, 0x00, 0x00, 0x00,
  0x9d, 0x01, 0x00, 0x00, 0x61, 0xff, 0xff, 0xff, 0x1c, 0xff, 0xff, 0xff,
  0x8a, 0x00, 0x00, 0x00, 0x41, 0x00, 0x00, 0x00, 0xf4, 0xff, 0xff, 0xff,
  0x5f, 0x00, 0x00, 0x00, 0x91, 0x02, 0x00, 0x00, 0x8e, 0xf4, 0xff, 0xff,
  0x04, 0x00, 0x00, 0x00, 0x20, 0x01, 0x00, 0x00, 0x76, 0x81, 0xa3, 0x6c,
  0xa0, 0xea, 0xa9, 0x93, 0x65, 0xfb, 0x0e, 0x6b, 0x90, 0x6a, 0x7f, 0xc6,
  0x7f, 0x9f, 0x9d, 0x90, 0x47, 0x7f, 0x77, 0x93, 0xc7, 0x7f, 0x77, 0x7e,
  0x81, 0x8d, 0xad, 0x0c, 0x4c, 0x9f, 0xeb, 0x74, 0xaa, 0xe7, 0xbb, 0xeb,
  0x4e, 0x32, 0x59, 0x6c, 0x9c, 0x59, 0x3e, 0x2b, 0xe1, 0xac, 0x79, 0xc2,
  0x5d, 0x47, 0x4d, 0xfc, 0xd7, 0x5b, 0x66, 0x27, 0xdd, 0xd6, 0xba, 0xba,
  0x40, 0xb8, 0x29, 0x3a, 0xa0, 0x6f, 0xb3, 0xe9, 0x3f, 0x68, 0x36, 0x61,
  0xbc, 0x3d, 0x26, 0x4a, 0xb6, 0xd8, 0x6e, 0xa7, 0x4b, 0x0e, 0x68, 0xf2,
  0xb5, 0x3d, 0x5e, 0x2b, 0x1c, 0x45, 0xe8, 0x81, 0x7f, 0x9f, 0x81, 0x63,
  0x91, 0xe3, 0x8d, 0x8e, 0x7f, 0x1d, 0x57, 0x7f, 0x81, 0x7f, 0x71, 0xdb,
  0x65, 0x81, 0xc4, 0xbf, 0x73, 0x64, 0x6c, 0x81, 0xaa, 0x76, 0x6b, 0x55,
  0x89, 0x81, 0x81, 0x0b, 0x42, 0x9d, 0xde, 0x7f, 0xa0, 0xe4, 0x81, 0xf7,
  0x59, 0x4e, 0x7f, 0x7b, 0x8d, 0x78, 0x4f, 0x44, 0xe3, 0x9b, 0x7f, 0xba,
  0x43, 0x41, 0x7f, 0xec, 0x99, 0x55, 0x54, 0x47, 0xc7, 0xec, 0xb1, 0xaa,
  0x41, 0xe3, 0x1f, 0x4d, 0x81, 0x7f, 0x9e, 0xc6, 0x60, 0x7f, 0x5d, 0x78,
  0xa2, 0x41, 0x2e, 0x7f, 0xad, 0xe0, 0x68, 0x95, 0x31, 0x1a, 0x59, 0xd8,
  0x8a, 0x3f, 0x5c, 0x19, 0xfe, 0x43, 0xf5, 0x81, 0x5e, 0xb4, 0xa7, 0x73,
  0xb1, 0xc6, 0x91, 0x81, 0x52, 0x10, 0x19, 0x7a, 0xc1, 0x5c, 0x7b, 0xb8,
  0x6c, 0xa9, 0xba, 0x81, 0x7f, 0x6f, 0x78, 0x9c, 0xd4, 0x74, 0x7f, 0x7f,
  0x99, 0xa9, 0xab, 0x01, 0x35, 0xa3, 0xde, 0x76, 0xb6, 0xf8, 0x89, 0xfc,
  0x72, 0x44, 0x5f, 0x68, 0xb3, 0x53, 0x5f, 0x43, 0xe4, 0xb6, 0x69, 0xab,
  0x41, 0x27, 0x60, 0x03, 0xb5, 0x35, 0x63, 0x23, 0xf5, 0xd9, 0xc7, 0xbf,
  0x37, 0xde, 0x2a, 0x4d, 0xaa, 0x6f, 0xc4, 0xd7, 0x5f, 0x76, 0x3a, 0x64,
  0xc6, 0x4c, 0x24, 0x47, 0xb8, 0xe7, 0x57, 0xbd, 0x26, 0x03, 0x6a, 0xe6,
  0x81, 0x34, 0x64, 0x39, 0x2d, 0x53, 0x17, 0x8f, 0xba, 0xf5, 0xff, 0xff,
  0x04, 0x00, 0x00, 0x00, 0x80, 0x00, 0x00, 0x00, 0x00, 0x00, 0x00, 0x00,
  0x00, 0x00, 0x00, 0x00, 0x00, 0x00, 0x00, 0x00, 0x00, 0x00, 0x00, 0x00,
  0x00, 0x00, 0x00, 0x00, 0x00, 0x00, 0x00, 0x00, 0x00, 0x00, 0x00, 0x00,
  0x00, 0x00, 0x00, 0x00, 0x00, 0x00, 0x00, 0x00, 0x00, 0x00, 0x00, 0x00,
  0x00, 0x00, 0x00, 0x00, 0x00, 0x00, 0x00, 0x00, 0x00, 0x00, 0x00, 0x00,
  0x00, 0x00, 0x00, 0x00, 0x00, 0x00, 0x00, 0x00, 0x00, 0x00, 0x00, 0x00,
  0x00, 0x00, 0x00, 0x00, 0x00, 0x00, 0x00, 0x00, 0x00, 0x00, 0x00, 0x00,
  0x00, 0x00, 0x00, 0x00, 0x00, 0x00, 0x00, 0x00, 0x00, 0x00, 0x00, 0x00,
  0x00, 0x00, 0x00, 0x00, 0x00, 0x00, 0x00, 0x00, 0x00, 0x00, 0x00, 0x00,
  0x00, 0x00, 0x00, 0x00, 0x00, 0x00, 0x00, 0x00, 0x00, 0x00, 0x00, 0x00,
  0x00, 0x00, 0x00, 0x00, 0x00, 0x00, 0x00, 0x00, 0x00, 0x00, 0x00, 0x00,
  0x00, 0x00, 0x00, 0x00, 0x46, 0xf6, 0xff, 0xff, 0x04, 0x00, 0x00, 0x00,
  0x00, 0x08, 0x00, 0x00, 0x1d, 0x02, 0xf8, 0xd2, 0x0d, 0x25, 0x0d, 0xef,
  0xf7, 0xc9, 0x61, 0x3d, 0x81, 0x07, 0x05, 0xf1, 0x5c, 0xf2, 0x58, 0x00,
  0x00, 0x1d, 0xf6, 0xf2, 0xf3, 0x17, 0xe4, 0x14, 0xfc, 0x35, 0x02, 0x19,
  0xe8, 0x0a, 0x24, 0x41, 0xf1, 0x19, 0xe2, 0xf7, 0x27, 0x21, 0x92, 0xc3,
  0x7f, 0x20, 0x1d, 0x14, 0xcd, 0x09, 0x93, 0xf5, 0x0c, 0xe9, 0x26, 0xea,
  0xfc, 0xef, 0x62, 0x0d, 0xe7, 0x98, 0xf8, 0xf7, 0x26, 0xf1, 0xf1, 0xbb,
  0x07, 0x33, 0x03, 0xe2, 0x04, 0xb6, 0x5c, 0x40, 0x81, 0xff, 0x08, 0xe8,
  0x6f, 0xea, 0x51, 0x00, 0xfd, 0x1b, 0xf0, 0xf3, 0xf8, 0x13, 0xe5, 0x15,
  0xf2, 0x36, 0x00, 0x1d, 0xe1, 0x06, 0x2b, 0x42, 0xe1, 0x10, 0xe4, 0xf4,
  0x26, 0x1a, 0x95, 0xba, 0x7f, 0x1d, 0x26, 0x17, 0xcd, 0x10, 0x86, 0xf0,
  0x05, 0xe9, 0x17, 0xea, 0xf5, 0xf1, 0x62, 0x08, 0xe2, 0x9d, 0xec, 0xf6,
  0xe1, 0x0b, 0x25, 0x4d, 0xec, 0x12, 0xda, 0xfb, 0x23, 0x22, 0x8e, 0xc6,
  0x7f, 0x1f, 0x25, 0x16, 0xca, 0x14, 0x86, 0xed, 0x04, 0xf0, 0x24, 0xe7,
  0xfe, 0xec, 0x52, 0x0c, 0xe3, 0x96, 0xef, 0xf6, 0x24, 0xf1, 0xde, 0xd4,
  0xfe, 0x05, 0x10, 0xf7, 0xfb, 0xf4, 0x5e, 0x3a, 0x81, 0xfe, 0xee, 0x02,
  0x26, 0xec, 0x61, 0x01, 0x0b, 0x13, 0xf6, 0xf9, 0xf7, 0x1d, 0xce, 0xfc,
  0x0a, 0x3d, 0xfd, 0xf5, 0xef, 0x0d, 0x23, 0x45, 0xed, 0x14, 0xe8, 0x08,
  0x17, 0x15, 0xa0, 0xb8, 0x7f, 0x12, 0x17, 0x1c, 0xc7, 0x08, 0x90, 0xfa,
  0xfa, 0xeb, 0x17, 0xea, 0xf5, 0xf9, 0x4f, 0x14, 0xe6, 0x98, 0xea, 0xe9,
  0xe7, 0x10, 0x25, 0x39, 0xe8, 0x18, 0xdf, 0xfa, 0x1e, 0x1c, 0xa0, 0xbe,
  0x7f, 0x14, 0x22, 0x18, 0xd3, 0x17, 0x93, 0xf8, 0x04, 0xe4, 0x15, 0xe5,
  0x01, 0xf6, 0x57, 0x12, 0xee, 0x99, 0xee, 0xeb, 0xef, 0x02, 0x1e, 0x47,
  0xef, 0x12, 0xe9, 0x03, 0x15, 0x28, 0x94, 0xc4, 0x7f, 0x14, 0x16, 0x1b,
  0xc2, 0x0d, 0x8e, 0xe7, 0xff, 0xf2, 0x20, 0xeb, 0xf2, 0xef, 0x57, 0x0b,
  0xe7, 0x8f, 0xe6, 0xea, 0x26, 0xf7, 0xe0, 0xd2, 0xfa, 0x04, 0x03, 0xf9,
  0xf4, 0xeb, 0x63, 0x3c, 0x81, 0xf2, 0xf2, 0x00, 0x25, 0xe7, 0x66, 0x02,
  0x0f, 0x15, 0xf3, 0xfc, 0xf7, 0x1d, 0xd1, 0x06, 0xff, 0x39, 0x0b, 0xf9,
  0xe2, 0x08, 0x32, 0x43, 0xea, 0x14, 0xdf, 0x08, 0x24, 0x28, 0x89, 0xbe,
  0x7f, 0x20, 0x1d, 0x14, 0xcf, 0x09, 0x87, 0xfa, 0xff, 0xec, 0x27, 0xe2,
  0xf4, 0xe5, 0x58, 0x09, 0xec, 0x8e, 0xf5, 0xe8, 0x2b, 0xeb, 0xd6, 0xd0,
  0xfc, 0x06, 0xff, 0xfa, 0xff, 0xed, 0x53, 0x37, 0x81, 0xfd, 0xfe, 0x02,
  0x23, 0xf2, 0x59, 0x06, 0x0c, 0x1f, 0xef, 0xfb, 0xf7, 0x14, 0xca, 0xfe,
  0x06, 0x41, 0x0a, 0xfa, 0xe1, 0xff, 0x19, 0x4c, 0xe7, 0x18, 0xdb, 0x02,
  0x1a, 0x1b, 0x9e, 0xc0, 0x7f, 0x23, 0x16, 0x1d, 0xcc, 0x0a, 0x86, 0xeb,
  0xfd, 0xec, 0x1c, 0xec, 0xfb, 0xf2, 0x5d, 0x0e, 0xe4, 0x96, 0xef, 0xf4,
  0x00, 0xff, 0xee, 0x0e, 0xfc, 0xc2, 0xfc, 0xfb, 0xff, 0x13, 0xdb, 0xe5,
  0x27, 0x03, 0x06, 0xe4, 0x20, 0xfb, 0x81, 0xfe, 0x06, 0x09, 0x04, 0xfb,
  0x01, 0x02, 0x0c, 0x01, 0xf6, 0xf8, 0xfb, 0xfc, 0xe4, 0x02, 0x12, 0x47,
  0xeb, 0x19, 0xe1, 0x02, 0x22, 0x1b, 0xa4, 0xc4, 0x7f, 0x0f, 0x1f, 0x0d,
  0xc7, 0x0b, 0x90, 0xf6, 0x0b, 0xe8, 0x1d, 0xe5, 0xf9, 0xf0, 0x53, 0x13,
  0xf0, 0xa4, 0xe9, 0xf9, 0xbc, 0x02, 0xad, 0xc1, 0x13, 0x1f, 0xf8, 0x4b,
  0xb0, 0xfd, 0x13, 0x81, 0xd8, 0xc4, 0xb2, 0xef, 0x4f, 0x3e, 0xd5, 0x25,
  0x1c, 0xd0, 0xcf, 0x55, 0x37, 0xae, 0xda, 0x91, 0x46, 0x5e, 0xdc, 0x28,
  0xe5, 0x00, 0x28, 0x3e, 0xf1, 0x1d, 0xee, 0x04, 0x17, 0x28, 0x97, 0xb3,
  0x7f, 0x24, 0x21, 0x14, 0xcd, 0x14, 0x92, 0xee, 0x09, 0xef, 0x15, 0xe4,
  0xf0, 0xe6, 0x54, 0x15, 0xe7, 0x91, 0xf7, 0xe7, 0x2a, 0xec, 0xe2, 0xda,
  0xfc, 0x04, 0x05, 0xec, 0xf8, 0xfd, 0x69, 0x40, 0x81, 0xfe, 0xf6, 0xfb,
  0x2b, 0xe3, 0x62, 0x02, 0x01, 0x1e, 0x01, 0x03, 0xf5, 0x10, 0xd0, 0xfe,
  0xf9, 0x40, 0x02, 0xfe, 0x20, 0xf3, 0xdd, 0xdb, 0x02, 0x00, 0x05, 0xf1,
  0x00, 0xec, 0x56, 0x45, 0x81, 0x00, 0xfe, 0xfd, 0x25, 0xed, 0x66, 0x04,
  0x09, 0x21, 0xff, 0xfd, 0xf3, 0x15, 0xc7, 0x06, 0xff, 0x3f, 0x09, 0xfc,
  0x21, 0xe9, 0xd8, 0xf0, 0xfd, 0xf8, 0xff, 0x03, 0xfc, 0x0b, 0x4e, 0x39,
  0x81, 0xf6, 0xf9, 0x02, 0x18, 0xea, 0x66, 0x03, 0x04, 0x10, 0xfe, 0x01,
  0xf0, 0x0c, 0xc5, 0xf7, 0x08, 0x43, 0x06, 0xf7, 0x31, 0xf1, 0xd0, 0xdd,
  0x00, 0xfd, 0x08, 0xf9, 0xfd, 0xf7, 0x65, 0x4b, 0x81, 0xf6, 0xf2, 0x07,
  0x29, 0xef, 0x6d, 0x04, 0x0c, 0x12, 0x00, 0xfe, 0xec, 0x16, 0xbc, 0x04,
  0x05, 0x51, 0x0a, 0xf5, 0x24, 0xe5, 0xe1, 0xd6, 0xfc, 0x06, 0x00, 0xeb,
  0xfa, 0xfa, 0x6d, 0x3c, 0x81, 0x03, 0x01, 0xff, 0x2e, 0xe0, 0x63, 0x01,
  0x0f, 0x24, 0xf1, 0x03, 0xeb, 0x1b, 0xcf, 0xfa, 0x02, 0x43, 0xfd, 0x02,
  0xdf, 0x0b, 0x1d, 0x4e, 0xee, 0x1a, 0xdf, 0x02, 0x1f, 0x15, 0x90, 0xb6,
  0x7f, 0x1f, 0x1f, 0x1b, 0xc9, 0x17, 0x84, 0xee, 0xfa, 0xf0, 0x14, 0xea,
  0xf1, 0xf3, 0x5c, 0x17, 0xe5, 0x8d, 0xef, 0xe8, 0x2a, 0xe8, 0xe5, 0xd7,
  0xfa, 0x08, 0x0a, 0xf1, 0xfd, 0xef, 0x63, 0x40, 0x81, 0xf0, 0xf5, 0xfc,
  0x2b, 0xf3, 0x5f, 0xfd, 0x0d, 0x19, 0xf8, 0xfc, 0xf6, 0x1b, 0xcb, 0x01,
  0x08, 0x40, 0xff, 0xfb, 0xe5, 0x05, 0x23, 0x46, 0xee, 0x1b, 0xec, 0x03,
  0x15, 0x16, 0x9d, 0xc5, 0x7f, 0x13, 0x18, 0x1a, 0xd3, 0x0a, 0x98, 0xf7,
  0x0a, 0xe5, 0x26, 0xea, 0xf9, 0xf8, 0x5d, 0x0b, 0xe4, 0x95, 0xef, 0xf0,
  0x26, 0xe6, 0xe4, 0xd3, 0xfa, 0x03, 0x02, 0xfd, 0x00, 0x00, 0x5d, 0x36,
  0x81, 0xee, 0xfc, 0xfd, 0x23, 0xea, 0x5c, 0xfe, 0x05, 0x10, 0xfa, 0xff,
  0xf4, 0x1f, 0xd3, 0x04, 0xfb, 0x3e, 0xfd, 0x05, 0x21, 0xf2, 0xea, 0xd8,
  0xf9, 0x03, 0x0f, 0xf9, 0xf3, 0xf9, 0x59, 0x46, 0x81, 0xfd, 0xf5, 0xfe,
  0x2a, 0xe4, 0x67, 0x05, 0x10, 0x1e, 0x01, 0xf9, 0xf3, 0x1f, 0xcd, 0xfd,
  0x0b, 0x40, 0x0a, 0xff, 0x20, 0xef, 0xdf, 0xe3, 0xf7, 0x06, 0x00, 0xf1,
  0x00, 0xfd, 0x5e, 0x40, 0x81, 0xfe, 0xee, 0xf8, 0x2a, 0xef, 0x5f, 0x08,
  0x10, 0x0f, 0xfa, 0xfe, 0xfc, 0x13, 0xd3, 0xfc, 0x06, 0x3c, 0x04, 0xfe,
  0xe3, 0x01, 0x27, 0x4a, 0xe2, 0x1e, 0xeb, 0xfa, 0x17, 0x1c, 0x9a, 0xba,
  0x7f, 0x22, 0x18, 0x0c, 0xcc, 0x10, 0x91, 0xf3, 0x02, 0xed, 0x20, 0xea,
  0xec, 0xf6, 0x56, 0x0f, 0xdf, 0x95, 0xf6, 0xf6, 0x25, 0xe5, 0xe0, 0xd2,
  0xfe, 0x02, 0x05, 0xf4, 0x00, 0xf9, 0x60, 0x39, 0x81, 0xef, 0xf0, 0x04,
  0x23, 0xe6, 0x63, 0xfe, 0x11, 0x13, 0xfb, 0xfd, 0xf8, 0x1d, 0xd7, 0xf8,
  0x04, 0x3b, 0x09, 0x01, 0x1e, 0xef, 0xf3, 0xc6, 0xfd, 0x1d, 0xfe, 0xec,
  0xfa, 0xb5, 0x59, 0x36, 0x81, 0x02, 0x05, 0xf1, 0x56, 0xe6, 0x5b, 0xfc,
  0x01, 0x1e, 0xf3, 0xfb, 0xfb, 0x0e, 0xf0, 0x0a, 0xfa, 0x22, 0x02, 0x17,
  0xed, 0x11, 0x1b, 0x4c, 0xf3, 0x16, 0xdf, 0x04, 0x26, 0x1f, 0x8c, 0xc3,
  0x7f, 0x14, 0x1a, 0x1d, 0xc3, 0x0f, 0x86, 0xeb, 0x04, 0xee, 0x25, 0xe5,
  0xef, 0xe7, 0x4e, 0x12, 0xdf, 0x93, 0xfa, 0xf3, 0x2a, 0xeb, 0xe2, 0xda,
  0x08, 0x03, 0x06, 0xec, 0xfc, 0xec, 0x5b, 0x3b, 0x81, 0xf0, 0xf5, 0xf0,
  0x27, 0xea, 0x67, 0xfa, 0x0c, 0x17, 0xf9, 0xfc, 0xfa, 0x20, 0xce, 0xfc,
  0x01, 0x46, 0x05, 0xf6, 0xed, 0x0c, 0x1f, 0x4b, 0xf0, 0x1a, 0xe1, 0xf9,
  0x19, 0x22, 0xa6, 0xca, 0x7f, 0x1d, 0x19, 0x17, 0xcf, 0x0b, 0x8f, 0xf0,
  0x07, 0xe6, 0x24, 0xef, 0xfe, 0xf2, 0x5b, 0x08, 0xdd, 0xa2, 0xf6, 0xf9,
  0xea, 0x0d, 0x28, 0x43, 0xf0, 0x1a, 0xec, 0x00, 0x1f, 0x20, 0x99, 0xc7,
  0x7f, 0x17, 0x1c, 0x1a, 0xc8, 0x0c, 0x9b, 0xeb, 0x09, 0xea, 0x16, 0xe0,
  0xfc, 0xf4, 0x52, 0x0d, 0xe3, 0x93, 0xed, 0xec, 0x28, 0xfe, 0xf5, 0xd4,
  0x09, 0x14, 0x03, 0xf3, 0x02, 0xe0, 0x5c, 0x3a, 0x81, 0x02, 0x0f, 0xf3,
  0x44, 0xe4, 0x68, 0x0a, 0x0f, 0x15, 0xf3, 0xf9, 0xfa, 0x0c, 0xe2, 0x0f,
  0xfc, 0x42, 0x07, 0x1c, 0xe4, 0x09, 0x14, 0x3e, 0xf4, 0x1c, 0xed, 0xfc,
  0x1e, 0x18, 0x9d, 0xbe, 0x7f, 0x1c, 0x11, 0x15, 0xcb, 0x0c, 0x90, 0xea,
  0x08, 0xeb, 0x26, 0xe5, 0xf8, 0xf7, 0x52, 0x11, 0xe3, 0x9d, 0xef, 0xf7,
  0x21, 0xf7, 0xd6, 0xd0, 0x06, 0x08, 0x11, 0xec, 0xf9, 0xeb, 0x5d, 0x43,
  0x81, 0xfb, 0xfe, 0xf6, 0x26, 0xed, 0x65, 0xfb, 0x03, 0x1f, 0xf0, 0xf9,
  0xf4, 0x22, 0xd4, 0xf8, 0x03, 0x43, 0x03, 0xf6, 0xeb, 0x04, 0x11, 0x42,
  0xeb, 0x0c, 0xe3, 0x09, 0x1c, 0x1d, 0xa4, 0xbf, 0x7f, 0x1c, 0x1d, 0x1e,
  0xbe, 0x07, 0x95, 0xe9, 0x0a, 0xf6, 0x23, 0xec, 0xf7, 0xf7, 0x4e, 0x15,
  0xe6, 0x99, 0xf8, 0xf4, 0x27, 0xfd, 0xf4, 0xd9, 0x00, 0x22, 0x11, 0xe4,
  0xfe, 0xb9, 0x68, 0x52, 0x81, 0xff, 0x0a, 0xe1, 0x63, 0xe6, 0x74, 0x10,
  0x02, 0x11, 0xea, 0xf0, 0xf4, 0x12, 0xe2, 0x09, 0x06, 0x3a, 0x09, 0x1a,
  0xeb, 0x14, 0x24, 0x46, 0xe4, 0x11, 0xe8, 0xf7, 0x25, 0x1c, 0x91, 0xc1,
  0x7f, 0x15, 0x1b, 0x1b, 0xcc, 0x0a, 0x84, 0xf2, 0x01, 0xe5, 0x25, 0xec,
  0xf9, 0xed, 0x5a, 0x10, 0xe2, 0x87, 0xe4, 0xeb, 0xe2, 0x0e, 0x2d, 0x48,
  0xf4, 0x12, 0xdc, 0xfe, 0x17, 0x23, 0x8e, 0xb8, 0x7f, 0x19, 0x21, 0x1b,
  0xcb, 0x13, 0x96, 0xf9, 0x0b, 0xec, 0x14, 0xe2, 0xef, 0xef, 0x57, 0x10,
  0xeb, 0x9c, 0xee, 0xf0, 0x21, 0xf5, 0xd9, 0xd8, 0xf9, 0x07, 0x11, 0xef,
  0xf3, 0xf6, 0x69, 0x44, 0x81, 0xf3, 0xf8, 0x01, 0x2d, 0xe6, 0x62, 0xff,
  0x03, 0x22, 0xf5, 0xfc, 0xf3, 0x20, 0xd1, 0x00, 0x02, 0x48, 0x0a, 0xf6,
  0x81, 0x3f, 0x34, 0x4c, 0xb8, 0xaa, 0x0d, 0xba, 0xb5, 0xd2, 0xad, 0xda,
  0xbc, 0xbe, 0x61, 0x57, 0x3b, 0xd1, 0x40, 0x3c, 0x85, 0x4f, 0xd3, 0x40,
  0x1e, 0x88, 0xaa, 0x83, 0x79, 0x49, 0xc5, 0x76, 0x2a, 0xf0, 0xe7, 0xda,
  0x02, 0x0a, 0x04, 0xec, 0xf5, 0xfa, 0x51, 0x41, 0x81, 0x00, 0xf2, 0xf4,
  0x2c, 0xe7, 0x5e, 0x00, 0x02, 0x1c, 0xf1, 0xfb, 0xf4, 0x19, 0xcc, 0x03,
  0x02, 0x46, 0x08, 0xfc, 0x1e, 0xfa, 0xb0, 0xf4, 0xfd, 0xf8, 0xfa, 0xf9,
  0xec, 0x23, 0x0b, 0x60, 0x91, 0xf0, 0xf1, 0xf2, 0xe7, 0x03, 0x7f, 0xfd,
  0xff, 0x12, 0x08, 0x14, 0xf7, 0x09, 0x96, 0xf4, 0x37, 0x72, 0x01, 0xe3,
  0x2f, 0xe8, 0xdb, 0xd2, 0x04, 0x04, 0x0d, 0xf4, 0xfa, 0xed, 0x64, 0x38,
  0x81, 0xf1, 0xef, 0xfe, 0x25, 0xe8, 0x60, 0x00, 0x00, 0x22, 0x01, 0xfc,
  0xfe, 0x21, 0xc9, 0xfc, 0x02, 0x45, 0xff, 0xf7, 0x28, 0xed, 0xd7, 0xd1,
  0x01, 0x07, 0x05, 0xf5, 0xfe, 0xfc, 0x5d, 0x47, 0x81, 0xf3, 0xf2, 0xf4,
  0x29, 0xef, 0x6c, 0xf9, 0x11, 0x23, 0xf6, 0xfe, 0xf2, 0x17, 0xd1, 0xff,
  0x07, 0x3d, 0xf9, 0x03, 0x20, 0xe7, 0xe9, 0xd9, 0x00, 0x04, 0x0d, 0xea,
  0x03, 0xf6, 0x65, 0x44, 0x81, 0x01, 0xf2, 0xf9, 0x28, 0xe2, 0x5b, 0x02,
  0x0a, 0x1f, 0xf3, 0x02, 0xf2, 0x1d, 0xdb, 0x06, 0x08, 0x3e, 0x03, 0x01,
  0x26, 0xfa, 0xe6, 0xd6, 0x00, 0x04, 0x0d, 0xeb, 0xf2, 0xf0, 0x64, 0x42,
  0x81, 0xf1, 0xf4, 0xf7, 0x26, 0xe6, 0x69, 0xfc, 0x0f, 0x11, 0xfc, 0xf8,
  0xfb, 0x18, 0xcb, 0x06, 0x06, 0x40, 0x02, 0xf7, 0x29, 0xf2, 0xdb, 0xde,
  0xff, 0x0a, 0x07, 0xed, 0xf6, 0xfa, 0x60, 0x33, 0x81, 0xf6, 0xf7, 0x03,
  0x2b, 0xe5, 0x54, 0x04, 0x0e, 0x18, 0xf5, 0x00, 0xf8, 0x18, 0xd2, 0xfc,
  0x01, 0x46, 0xf8, 0xfa, 0x1b, 0xed, 0xe7, 0xcf, 0x07, 0x03, 0x07, 0xfd,
  0xfb, 0xe6, 0x61, 0x3e, 0x81, 0xfc, 0xfd, 0x02, 0x1f, 0xdd, 0x65, 0xfa,
  0x0e, 0x23, 0x03, 0x03, 0xf7, 0x12, 0xd9, 0x02, 0xf7, 0x33, 0x01, 0x04,
  0xe3, 0x03, 0x2f, 0x41, 0xf2, 0x1e, 0xda, 0x00, 0x1d, 0x25, 0x8e, 0xb7,
  0x7f, 0x14, 0x24, 0x12, 0xcb, 0x06, 0x89, 0xef, 0x01, 0xe7, 0x17, 0xdf,
  0xf5, 0xee, 0x5f, 0x15, 0xea, 0x92, 0xf9, 0xf1, 0x28, 0xf2, 0xd8, 0xd3,
  0x00, 0x07, 0xfe, 0xf7, 0xf7, 0xf6, 0x5b, 0x36, 0x81, 0x00, 0xfa, 0x02,
  0x22, 0xef, 0x61, 0xf9, 0x0d, 0x11, 0xf3, 0xfa, 0xf6, 0x19, 0xcd, 0xfa,
  0x0b, 0x3d, 0x06, 0x02, 0xea, 0x15, 0x16, 0x50, 0xe9, 0x0e, 0xde, 0xff,
  0x13, 0x17, 0x97, 0xc0, 0x7f, 0x12, 0x1b, 0x16, 0xc4, 0x0d, 0x8d, 0xe7,
  0xfe, 0xe9, 0x18, 0xeb, 0xf4, 0xf6, 0x55, 0x05, 0xe6, 0x95, 0xf8, 0xf1,
  0x26, 0xea, 0xe4, 0xd6, 0xfc, 0xff, 0x04, 0xf1, 0xf3, 0xf6, 0x5e, 0x42,
  0x81, 0xf8, 0xfd, 0x03, 0x27, 0xed, 0x6a, 0x05, 0x05, 0x21, 0xf3, 0xfe,
  0xf1, 0x17, 0xce, 0x01, 0xfc, 0x3e, 0x02, 0xfa, 0x28, 0xee, 0xec, 0xd2,
  0xf8, 0x00, 0x0a, 0xfa, 0xfb, 0xfe, 0x56, 0x38, 0x81, 0xf8, 0xf7, 0xfc,
  0x20, 0xea, 0x65, 0xfb, 0x07, 0x1d, 0xf6, 0xfc, 0xf6, 0x1b, 0xcc, 0x06,
  0x08, 0x3a, 0x00, 0x02, 0x26, 0xf6, 0xe6, 0xd5, 0xfa, 0x03, 0x07, 0xee,
  0xf7, 0xf3, 0x61, 0x3f, 0x81, 0xf2, 0xf4, 0xf8, 0x22, 0xe2, 0x5f, 0x05,
  0x0d, 0x13, 0xfd, 0xfb, 0xfc, 0x1b, 0xcc, 0x0a, 0x06, 0x40, 0x02, 0x00,
  0x28, 0xf0, 0xd5, 0xcf, 0x02, 0x0b, 0x01, 0xeb, 0xf6, 0xe7, 0x64, 0x3f,
  0x81, 0xf1, 0xf8, 0xfc, 0x2e, 0xed, 0x6c, 0x0c, 0x01, 0x1f, 0xf9, 0xfd,
  0xf4, 0x1f, 0xcf, 0xfd, 0x00, 0x3d, 0x01, 0xf6, 0xe3, 0x0a, 0x28, 0x4c,
  0xeb, 0x1b, 0xed, 0xf7, 0x10, 0x21, 0x9c, 0xc2, 0x7f, 0x17, 0x13, 0x1f,
  0xc8, 0x0a, 0x8c, 0xf3, 0xf9, 0xe4, 0x25, 0xdf, 0xff, 0xf6, 0x55, 0x16,
  0xe5, 0x9c, 0xee, 0xee, 0xe5, 0x09, 0x1c, 0x43, 0xe6, 0x17, 0xd8, 0xf7,
  0x1d, 0x25, 0x95, 0xb4, 0x7f, 0x1e, 0x12, 0x1b, 0xce, 0x15, 0x8d, 0xf3,
  0x05, 0xe5, 0x1f, 0xeb, 0xf9, 0xee, 0x51, 0x1b, 0xde, 0x92, 0xeb, 0xe9,
  0x2c, 0xe8, 0xe7, 0xd0, 0x02, 0x05, 0x07, 0xe8, 0xf3, 0xf2, 0x5e, 0x3d,
  0x81, 0xef, 0xf1, 0xf3, 0x26, 0xea, 0x6b, 0x00, 0x0f, 0x1d, 0xf9, 0xfc,
  0xf3, 0x1a, 0xd4, 0xf8, 0x08, 0x40, 0xfc, 0xfc, 0xe9, 0x00, 0x26, 0x3e,
  0xed, 0x1a, 0xee, 0xfb, 0x20, 0x29, 0x8d, 0xbf, 0x7f, 0x15, 0x18, 0x10,
  0xc8, 0x13, 0x91, 0xe6, 0xf8, 0xf3, 0x26, 0xdf, 0xef, 0xec, 0x5b, 0x08,
  0xeb, 0x96, 0xf9, 0xf7, 0x2a, 0xe9, 0xe7, 0xd2, 0x08, 0x06, 0x00, 0xff,
  0xf2, 0xf3, 0x5f, 0x49, 0x81, 0xfa, 0xfa, 0xf6, 0x2b, 0xe7, 0x65, 0xf9,
  0x0a, 0x1a, 0x02, 0x02, 0xf0, 0x17, 0xd4, 0x0d, 0x03, 0x3e, 0xf8, 0x05,
  0x52, 0xfe, 0xff, 0xff, 0x04, 0x00, 0x00, 0x00, 0x00, 0x01, 0x00, 0x00,
  0xc8, 0xff, 0xff, 0xff, 0x0f, 0x02, 0x00, 0x00, 0xac, 0xff, 0xff, 0xff,
  0xfd, 0x01, 0x00, 0x00, 0xf0, 0x01, 0x00, 0x00, 0xf6, 0xff, 0xff, 0xff,
  0xda, 0x01, 0x00, 0x00, 0xa3, 0x01, 0x00, 0x00, 0xe4, 0x01, 0x00, 0x00,
  0x17, 0x00, 0x00, 0x00, 0xb3, 0x01, 0x00, 0x00, 0x01, 0x00, 0x00, 0x00,
  0xd8, 0x01, 0x00, 0x00, 0x65, 0x00, 0x00, 0x00, 0xaa, 0x01, 0x00, 0x00,
  0x0a, 0x01, 0x00, 0x00, 0xb5, 0x01, 0x00, 0x00, 0x1c, 0x00, 0x00, 0x00,
  0x0c, 0x00, 0x00, 0x00, 0x2a, 0x00, 0x00, 0x00, 0x40, 0x00, 0x00, 0x00,
  0x3c, 0x00, 0x00, 0x00, 0xe8, 0x01, 0x00, 0x00, 0x26, 0x00, 0x00, 0x00,
  0xfb, 0x01, 0x00, 0x00, 0x19, 0x00, 0x00, 0x00, 0x15, 0x00, 0x00, 0x00,
  0x3f, 0x00, 0x00, 0x00, 0xff, 0x01, 0x00, 0x00, 0x33, 0x00, 0x00, 0x00,
  0x03, 0x00, 0x00, 0x00, 0xbe, 0x01, 0x00, 0x00, 0x29, 0x00, 0x00, 0x00,
  0x12, 0x02, 0x00, 0x00, 0x7d, 0x01, 0x00, 0x00, 0x18, 0x00, 0x00, 0x00,
  0xee, 0x01, 0x00, 0x00, 0xf8, 0xff, 0xff, 0xff, 0x78, 0x01, 0x00, 0x00,
  0xe3, 0xff, 0xff, 0xff, 0xbe, 0x01, 0x00, 0x00, 0xee, 0x01, 0x00, 0x00,
  0x06, 0x00, 0x00, 0x00, 0x4c, 0xff, 0xff, 0xff, 0x14, 0x00, 0x00, 0x00,
  0x70, 0x00, 0x00, 0x00, 0x38, 0x00, 0x00, 0x00, 0x35, 0x00, 0x00, 0x00,
  0x3a, 0x00, 0x00, 0x00, 0x07, 0x00, 0x00, 0x00, 0x40, 0x00, 0x00, 0x00,
  0x7a, 0x00, 0x00, 0x00, 0xc5, 0x01, 0x00, 0x00, 0x20, 0x00, 0x00, 0x00,
  0x01, 0x02, 0x00, 0x00, 0x08, 0x00, 0x00, 0x00, 0x3f, 0x00, 0x00, 0x00,
  0x37, 0x00, 0x00, 0x00, 0xfe, 0xff, 0xff, 0xff, 0xa6, 0x01, 0x00, 0x00,
  0xab, 0x01, 0x00, 0x00, 0x2d, 0x00, 0x00, 0x00, 0xc9, 0x01, 0x00, 0x00,
  0x60, 0x00, 0x00, 0x00, 0x5e, 0xff, 0xff, 0xff, 0x04, 0x00, 0x00, 0x00,
  0x80, 0x00, 0x00, 0x00, 0x8f, 0x56, 0x93, 0x56, 0x48, 0xb2, 0x3c, 0x38,
  0x31, 0xaa, 0x3f, 0xb2, 0x4a, 0x7d, 0x42, 0xfb, 0x39, 0xb7, 0xb3, 0xa3,
  0xa9, 0xb4, 0x45, 0xac, 0x3f, 0xa9, 0xb2, 0xa0, 0x50, 0xaf, 0x9d, 0x41,
  0xb7, 0x47, 0x3b, 0x8d, 0x44, 0xbd, 0x32, 0x9a, 0x39, 0x49, 0xb8, 0x05,
  0xb6, 0x84, 0xaf, 0xaa, 0xc2, 0xb2, 0xad, 0x9b, 0x3e, 0xae, 0x3a, 0xbd,
  0xae, 0xab, 0xb0, 0x40, 0x3e, 0xb3, 0x45, 0xa2, 0x68, 0xb2, 0x62, 0xb1,
  0xb2, 0x45, 0xcd, 0xbc, 0xce, 0x55, 0xb4, 0x52, 0xbf, 0x81, 0xba, 0xfd,
  0xbc, 0x55, 0x44, 0x5c, 0x55, 0x4b, 0xb8, 0x4a, 0xc5, 0x55, 0x4f, 0x54,
  0xc0, 0x4f, 0x66, 0xc6, 0x4b, 0xac, 0xc8, 0x65, 0xbe, 0x46, 0xc9, 0x65,
  0xbb, 0xb6, 0x3c, 0x00, 0x4d, 0x6e, 0x47, 0x49, 0x4e, 0x4e, 0x46, 0x5b,
  0xbc, 0x55, 0xbc, 0x50, 0x57, 0x57, 0x49, 0xc0, 0xbf, 0x4f, 0xba, 0x60,
  0xea, 0xff, 0xff, 0xff, 0x04, 0x00, 0x00, 0x00, 0x08, 0x00, 0x00, 0x00,
  0x07, 0x05, 0x00, 0x00, 0xf9, 0xfa, 0xff, 0xff, 0x00, 0x00, 0x06, 0x00,
  0x08, 0x00, 0x04, 0x00, 0x06, 0x00, 0x00, 0x00, 0x04, 0x00, 0x00, 0x00,
  0x08, 0x00, 0x00, 0x00, 0x01, 0x00, 0x00, 0x00, 0x02, 0x00, 0x00, 0x00,
  0x3c, 0xdd, 0xff, 0xff, 0x40, 0xdd, 0xff, 0xff, 0x0f, 0x00, 0x00, 0x00,
  0x4d, 0x4c, 0x49, 0x52, 0x20, 0x43, 0x6f, 0x6e, 0x76, 0x65, 0x72, 0x74,
  0x65, 0x64, 0x2e, 0x00, 0x01, 0x00, 0x00, 0x00, 0x14, 0x00, 0x00, 0x00,
  0x00, 0x00, 0x0e, 0x00, 0x18, 0x00, 0x14, 0x00, 0x10, 0x00, 0x0c, 0x00,
  0x08, 0x00, 0x04, 0x00, 0x0e, 0x00, 0x00, 0x00, 0x14, 0x00, 0x00, 0x00,
  0x1c, 0x00, 0x00, 0x00, 0x38, 0x03, 0x00, 0x00, 0x3c, 0x03, 0x00, 0x00,
  0x40, 0x03, 0x00, 0x00, 0x04, 0x00, 0x00, 0x00, 0x6d, 0x61, 0x69, 0x6e,
  0x00, 0x00, 0x00, 0x00, 0x0b, 0x00, 0x00, 0x00, 0xd4, 0x02, 0x00, 0x00,
  0x70, 0x02, 0x00, 0x00, 0x20, 0x02, 0x00, 0x00, 0xdc, 0x01, 0x00, 0x00,
  0x8c, 0x01, 0x00, 0x00, 0x3c, 0x01, 0x00, 0x00, 0xf8, 0x00, 0x00, 0x00,
  0xb4, 0x00, 0x00, 0x00, 0x70, 0x00, 0x00, 0x00, 0x3c, 0x00, 0x00, 0x00,
  0x04, 0x00, 0x00, 0x00, 0xc6, 0xfd, 0xff, 0xff, 0x14, 0x00, 0x00, 0x00,
  0x00, 0x00, 0x00, 0x08, 0x10, 0x00, 0x00, 0x00, 0x14, 0x00, 0x00, 0x00,
  0x04, 0x00, 0x00, 0x00, 0xdc, 0xdd, 0xff, 0xff, 0x01, 0x00, 0x00, 0x00,
  0x1a, 0x00, 0x00, 0x00, 0x03, 0x00, 0x00, 0x00, 0x19, 0x00, 0x00, 0x00,
  0x03, 0x00, 0x00, 0x00, 0x02, 0x00, 0x00, 0x00, 0xfa, 0xfd, 0xff, 0xff,
  0x14, 0x00, 0x00, 0x00, 0x00, 0x00, 0x00, 0x1b, 0x10, 0x00, 0x00, 0x00,
  0x14, 0x00, 0x00, 0x00, 0x03, 0x00, 0x00, 0x00, 0x10, 0xde, 0xff, 0xff,
  0x01, 0x00, 0x00, 0x00, 0x19, 0x00, 0x00, 0x00, 0x02, 0x00, 0x00, 0x00,
  0x18, 0x00, 0x00, 0x00, 0x01, 0x00, 0x00, 0x00, 0xca, 0xfd, 0xff, 0xff,
  0x10, 0x00, 0x00, 0x00, 0x00, 0x00, 0x00, 0x01, 0x1c, 0x00, 0x00, 0x00,
  0x20, 0x00, 0x00, 0x00, 0x40, 0xff, 0xff, 0xff, 0x00, 0x00, 0x00, 0x01,
  0x01, 0x00, 0x00, 0x00, 0x01, 0x00, 0x00, 0x00, 0x00, 0x00, 0x00, 0x01,
  0x01, 0x00, 0x00, 0x00, 0x18, 0x00, 0x00, 0x00, 0x03, 0x00, 0x00, 0x00,
  0x17, 0x00, 0x00, 0x00, 0x05, 0x00, 0x00, 0x00, 0x04, 0x00, 0x00, 0x00,
  0x6a, 0xfe, 0xff, 0xff, 0x14, 0x00, 0x00, 0x00, 0x00, 0x00, 0x00, 0x02,
  0x1c, 0x00, 0x00, 0x00, 0x20, 0x00, 0x00, 0x00, 0x02, 0x00, 0x00, 0x00,
  0x34, 0xff, 0xff, 0xff, 0x01, 0x00, 0x00, 0x00, 0x01, 0x00, 0x00, 0x00,
  0x01, 0x00, 0x00, 0x00, 0x01, 0x00, 0x00, 0x00, 0x17, 0x00, 0x00, 0x00,
  0x03, 0x00, 0x00, 0x00, 0x16, 0x00, 0x00, 0x00, 0x07, 0x00, 0x00, 0x00,
  0x06, 0x00, 0x00, 0x00, 0xaa, 0xfe, 0xff, 0xff, 0x14, 0x00, 0x00, 0x00,
  0x00, 0x00, 0x00, 0x05, 0x24, 0x00, 0x00, 0x00, 0x28, 0x00, 0x00, 0x00,
  0x01, 0x00, 0x00, 0x00, 0x9a, 0xfe, 0xff, 0xff, 0x02, 0x00, 0x00, 0x00,
  0x02, 0x00, 0x00, 0x00, 0x02, 0x00, 0x00, 0x00, 0x02, 0x00, 0x00, 0x00,
  0x00, 0x00, 0x00, 0x01, 0x01, 0x00, 0x00, 0x00, 0x16, 0x00, 0x00, 0x00,
  0x01, 0x00, 0x00, 0x00, 0x15, 0x00, 0x00, 0x00, 0x8a, 0xfe, 0xff, 0xff,
  0x1c, 0x00, 0x00, 0x00, 0x00, 0x00, 0x00, 0x01, 0x28, 0x00, 0x00, 0x00,
  0x2c, 0x00, 0x00, 0x00, 0x0c, 0x00, 0x14, 0x00, 0x13, 0x00, 0x0c, 0x00,
  0x08, 0x00, 0x07, 0x00, 0x0c, 0x00, 0x00, 0x00, 0x00, 0x00, 0x00, 0x01,
  0x01, 0x00, 0x00, 0x00, 0x01, 0x00, 0x00, 0x00, 0x00, 0x00, 0x00, 0x01,
  0x01, 0x00, 0x00, 0x00, 0x15, 0x00, 0x00, 0x00, 0x03, 0x00, 0x00, 0x00,
  0x14, 0x00, 0x00, 0x00, 0x09, 0x00, 0x00, 0x00, 0x08, 0x00, 0x00, 0x00,
  0x36, 0xff, 0xff, 0xff, 0x20, 0x00, 0x00, 0x00, 0x00, 0x00, 0x00, 0x02,
  0x28, 0x00, 0x00, 0x00, 0x2c, 0x00, 0x00, 0x00, 0x02, 0x00, 0x00, 0x00,
  0x0c, 0x00, 0x10, 0x00, 0x00, 0x00, 0x0c, 0x00, 0x08, 0x00, 0x04, 0x00,
  0x0c, 0x00, 0x00, 0x00, 0x01, 0x00, 0x00, 0x00, 0x01, 0x00, 0x00, 0x00,
  0x01, 0x00, 0x00, 0x00, 0x01, 0x00, 0x00, 0x00, 0x14, 0x00, 0x00, 0x00,
  0x03, 0x00, 0x00, 0x00, 0x13, 0x00, 0x00, 0x00, 0x0b, 0x00, 0x00, 0x00,
  0x0a, 0x00, 0x00, 0x00, 0x82, 0xff, 0xff, 0xff, 0x14, 0x00, 0x00, 0x00,
  0x00, 0x00, 0x00, 0x05, 0x24, 0x00, 0x00, 0x00, 0x28, 0x00, 0x00, 0x00,
  0x01, 0x00, 0x00, 0x00, 0x72, 0xff, 0xff, 0xff, 0x02, 0x00, 0x00, 0x00,
  0x02, 0x00, 0x00, 0x00, 0x02, 0x00, 0x00, 0x00, 0x02, 0x00, 0x00, 0x00,
  0x00, 0x00, 0x00, 0x01, 0x01, 0x00, 0x00, 0x00, 0x13, 0x00, 0x00, 0x00,
  0x01, 0x00, 0x00, 0x00, 0x12, 0x00, 0x00, 0x00, 0x62, 0xff, 0xff, 0xff,
  0x10, 0x00, 0x00, 0x00, 0x00, 0x00, 0x00, 0x01, 0x18, 0x00, 0x00, 0x00,
  0x1c, 0x00, 0x00, 0x00, 0x54, 0xff, 0xff, 0xff, 0x00, 0x00, 0x00, 0x01,
  0x01, 0x00, 0x00, 0x00, 0x01, 0x00, 0x00, 0x00, 0x01, 0x00, 0x00, 0x00,
  0x12, 0x00, 0x00, 0x00, 0x03, 0x00, 0x00, 0x00, 0x11, 0x00, 0x00, 0x00,
  0x0d, 0x00, 0x00, 0x00, 0x0c, 0x00, 0x00, 0x00, 0x00, 0x00, 0x0e, 0x00,
  0x1a, 0x00, 0x14, 0x00, 0x10, 0x00, 0x0c, 0x00, 0x0b, 0x00, 0x04, 0x00,
  0x0e, 0x00, 0x00, 0x00, 0x24, 0x00, 0x00, 0x00, 0x00, 0x00, 0x00, 0x05,
  0x34, 0x00, 0x00, 0x00, 0x38, 0x00, 0x00, 0x00, 0x01, 0x00, 0x00, 0x00,
  0x00, 0x00, 0x0e, 0x00, 0x18, 0x00, 0x17, 0x00, 0x10, 0x00, 0x0c, 0x00,
  0x08, 0x00, 0x04, 0x00, 0x0e, 0x00, 0x00, 0x00, 0x02, 0x00, 0x00, 0x00,
  0x02, 0x00, 0x00, 0x00, 0x02, 0x00, 0x00, 0x00, 0x02, 0x00, 0x00, 0x00,
  0x00, 0x00, 0x00, 0x01, 0x01, 0x00, 0x00, 0x00, 0x11, 0x00, 0x00, 0x00,
  0x01, 0x00, 0x00, 0x00, 0x10, 0x00, 0x00, 0x00, 0x00, 0x00, 0x0e, 0x00,
  0x14, 0x00, 0x00, 0x00, 0x10, 0x00, 0x0c, 0x00, 0x0b, 0x00, 0x04, 0x00,
  0x0e, 0x00, 0x00, 0x00, 0x1c, 0x00, 0x00, 0x00, 0x00, 0x00, 0x00, 0x01,
  0x24, 0x00, 0x00, 0x00, 0x28, 0x00, 0x00, 0x00, 0x0c, 0x00, 0x10, 0x00,
  0x00, 0x00, 0x0c, 0x00, 0x08, 0x00, 0x07, 0x00, 0x0c, 0x00, 0x00, 0x00,
  0x00, 0x00, 0x00, 0x01, 0x01, 0x00, 0x00, 0x00, 0x01, 0x00, 0x00, 0x00,
  0x01, 0x00, 0x00, 0x00, 0x10, 0x00, 0x00, 0x00, 0x03, 0x00, 0x00, 0x00,
  0x00, 0x00, 0x00, 0x00, 0x0f, 0x00, 0x00, 0x00, 0x0e, 0x00, 0x00, 0x00,
  0x01, 0x00, 0x00, 0x00, 0x1a, 0x00, 0x00, 0x00, 0x01, 0x00, 0x00, 0x00,
  0x00, 0x00, 0x00, 0x00, 0x1b, 0x00, 0x00, 0x00, 0xa0, 0x1f, 0x00, 0x00,
  0x18, 0x1f, 0x00, 0x00, 0x8c, 0x1e, 0x00, 0x00, 0x20, 0x1e, 0x00, 0x00,
  0xa4, 0x1a, 0x00, 0x00, 0x28, 0x17, 0x00, 0x00, 0x2c, 0x15, 0x00, 0x00,
  0x08, 0x13, 0x00, 0x00, 0x14, 0x11, 0x00, 0x00, 0x18, 0x0f, 0x00, 0x00,
  0xdc, 0x0d, 0x00, 0x00, 0x94, 0x0c, 0x00, 0x00, 0x64, 0x0b, 0x00, 0x00,
  0x38, 0x0a, 0x00, 0x00, 0x6c, 0x09, 0x00, 0x00, 0xa0, 0x08, 0x00, 0x00,
  0xbc, 0x07, 0x00, 0x00, 0x28, 0x07, 0x00, 0x00, 0x04, 0x06, 0x00, 0x00,
  0x70, 0x05, 0x00, 0x00, 0xc4, 0x04, 0x00, 0x00, 0x70, 0x03, 0x00, 0x00,
  0xdc, 0x02, 0x00, 0x00, 0x30, 0x02, 0x00, 0x00, 0x0c, 0x01, 0x00, 0x00,
  0x80, 0x00, 0x00, 0x00, 0x04, 0x00, 0x00, 0x00, 0xe2, 0xe0, 0xff, 0xff,
  0x00, 0x00, 0x00, 0x01, 0x18, 0x00, 0x00, 0x00, 0x20, 0x00, 0x00, 0x00,
  0x3c, 0x00, 0x00, 0x00, 0x1b, 0x00, 0x00, 0x00, 0x00, 0x00, 0x00, 0x09,
  0x50, 0x00, 0x00, 0x00, 0x02, 0x00, 0x00, 0x00, 0xff, 0xff, 0xff, 0xff,
  0x02, 0x00, 0x00, 0x00, 0xc4, 0xe0, 0xff, 0xff, 0x08, 0x00, 0x00, 0x00,
  0x10, 0x00, 0x00, 0x00, 0x01, 0x00, 0x00, 0x00, 0x02, 0x00, 0x00, 0x00,
  0x00, 0x00, 0x00, 0x00, 0x01, 0x00, 0x00, 0x00, 0xcd, 0x62, 0x98, 0x3d,
  0x19, 0x00, 0x00, 0x00, 0x53, 0x74, 0x61, 0x74, 0x65, 0x66, 0x75, 0x6c,
  0x50, 0x61, 0x72, 0x74, 0x69, 0x74, 0x69, 0x6f, 0x6e, 0x65, 0x64, 0x43,
  0x61, 0x6c, 0x6c, 0x3a, 0x30, 0x00, 0x00, 0x00, 0x02, 0x00, 0x00, 0x00,
  0x01, 0x00, 0x00, 0x00, 0x02, 0x00, 0x00, 0x00, 0x5a, 0xe1, 0xff, 0xff,
  0x00, 0x00, 0x00, 0x01, 0x18, 0x00, 0x00, 0x00, 0x20, 0x00, 0x00, 0x00,
  0x3c, 0x00, 0x00, 0x00, 0x1a, 0x00, 0x00, 0x00, 0x00, 0x00, 0x00, 0x09,
  0x60, 0x00, 0x00, 0x00, 0x02, 0x00, 0x00, 0x00, 0xff, 0xff, 0xff, 0xff,
  0x40, 0x00, 0x00, 0x00, 0x3c, 0xe1, 0xff, 0xff, 0x08, 0x00, 0x00, 0x00,
  0x10, 0x00, 0x00, 0x00, 0x01, 0x00, 0x00, 0x00, 0x80, 0xff, 0xff, 0xff,
  0xff, 0xff, 0xff, 0xff, 0x01, 0x00, 0x00, 0x00, 0x72, 0x2a, 0x0c, 0x3c,
  0x28, 0x00, 0x00, 0x00, 0x73, 0x65, 0x71, 0x75, 0x65, 0x6e, 0x74, 0x69,
  0x61, 0x6c, 0x2f, 0x67, 0x6c, 0x6f, 0x62, 0x61, 0x6c, 0x5f, 0x61, 0x76,
  0x65, 0x72, 0x61, 0x67, 0x65, 0x5f, 0x70, 0x6f, 0x6f, 0x6c, 0x69, 0x6e,
  0x67, 0x32, 0x64, 0x2f, 0x4d, 0x65, 0x61, 0x6e, 0x00, 0x00, 0x00, 0x00,
  0x02, 0x00, 0x00, 0x00, 0x01, 0x00, 0x00, 0x00, 0x40, 0x00, 0x00, 0x00,
  0xe2, 0xe1, 0xff, 0xff, 0x00, 0x00, 0x00, 0x01, 0x18, 0x00, 0x00, 0x00,
  0x28, 0x00, 0x00, 0x00, 0x48, 0x00, 0x00, 0x00, 0x19, 0x00, 0x00, 0x00,
  0x00, 0x00, 0x00, 0x09, 0xf0, 0x00, 0x00, 0x00, 0x04, 0x00, 0x00, 0x00,
  0xff, 0xff, 0xff, 0xff, 0x08, 0x00, 0x00, 0x00, 0x08, 0x00, 0x00, 0x00,
  0x40, 0x00, 0x00, 0x00, 0xcc, 0xe1, 0xff, 0xff, 0x08, 0x00, 0x00, 0x00,
  0x14, 0x00, 0x00, 0x00, 0x01, 0x00, 0x00, 0x00, 0x80, 0xff, 0xff, 0xff,
  0xff, 0xff, 0xff, 0xff, 0x00, 0x00, 0x00, 0x00, 0x01, 0x00, 0x00, 0x00,
  0x10, 0xab, 0x4d, 0x3d, 0xac, 0x00, 0x00, 0x00, 0x73, 0x65, 0x71, 0x75,
  0x65, 0x6e, 0x74, 0x69, 0x61, 0x6c, 0x2f, 0x73, 0x65, 0x70, 0x61, 0x72,
  0x61, 0x62, 0x6c, 0x65, 0x5f, 0x63, 0x6f, 0x6e, 0x76, 0x32, 0x64, 0x5f,
  0x31, 0x2f, 0x52, 0x65, 0x6c, 0x75, 0x3b, 0x73, 0x65, 0x71, 0x75, 0x65,
  0x6e, 0x74, 0x69, 0x61, 0x6c, 0x2f, 0x73, 0x65, 0x70, 0x61, 0x72, 0x61,
  0x62, 0x6c, 0x65, 0x5f, 0x63, 0x6f, 0x6e, 0x76, 0x32, 0x64, 0x5f, 0x31,
  0x2f, 0x42, 0x69, 0x61, 0x73, 0x41, 0x64, 0x64, 0x3b, 0x73, 0x65, 0x71,
  0x75, 0x65, 0x6e, 0x74, 0x69, 0x61, 0x6c, 0x2f, 0x73, 0x65, 0x70, 0x61,
  0x72, 0x61, 0x62, 0x6c, 0x65, 0x5f, 0x63, 0x6f, 0x6e, 0x76, 0x32, 0x64,
  0x5f, 0x31, 0x2f, 0x73, 0x65, 0x70, 0x61, 0x72, 0x61, 0x62, 0x6c, 0x65,
  0x5f, 0x63, 0x6f, 0x6e, 0x76, 0x32, 0x64, 0x3b, 0x73, 0x65, 0x71, 0x75,
  0x65, 0x6e, 0x74, 0x69, 0x61, 0x6c, 0x2f, 0x73, 0x65, 0x70, 0x61, 0x72,
  0x61, 0x62, 0x6c, 0x65, 0x5f, 0x63, 0x6f, 0x6e, 0x76, 0x32, 0x64, 0x5f,
  0x31, 0x2f, 0x42, 0x69, 0x61, 0x73, 0x41, 0x64, 0x64, 0x2f, 0x52, 0x65,
  0x61, 0x64, 0x56, 0x61, 0x72, 0x69, 0x61, 0x62, 0x6c, 0x65, 0x4f, 0x70,
  0x00, 0x00, 0x00, 0x00, 0x04, 0x00, 0x00, 0x00, 0x01, 0x00, 0x00, 0x00,
  0x08, 0x00, 0x00, 0x00, 0x08, 0x00, 0x00, 0x00, 0x40, 0x00, 0x00, 0x00,
  0x02, 0xe3, 0xff, 0xff, 0x00, 0x00, 0x00, 0x01, 0x18, 0x00, 0x00, 0x00,
  0x28, 0x00, 0x00, 0x00, 0x44, 0x00, 0x00, 0x00, 0x18, 0x00, 0x00, 0x00,
  0x00, 0x00, 0x00, 0x09, 0x78, 0x00, 0x00, 0x00, 0x04, 0x00, 0x00, 0x00,
  0xff, 0xff, 0xff, 0xff, 0x08, 0x00, 0x00, 0x00, 0x08, 0x00, 0x00, 0x00,
  0x20, 0x00, 0x00, 0x00, 0xec, 0xe2, 0xff, 0xff, 0x08, 0x00, 0x00, 0x00,
  0x10, 0x00, 0x00, 0x00, 0x01, 0x00, 0x00, 0x00, 0xf0, 0xff, 0xff, 0xff,
  0xff, 0xff, 0xff, 0xff, 0x01, 0x00, 0x00, 0x00, 0xa8, 0xb7, 0x66, 0x3d,
  0x39, 0x00, 0x00, 0x00, 0x73, 0x65, 0x71, 0x75, 0x65, 0x6e, 0x74, 0x69,
  0x61, 0x6c, 0x2f, 0x73, 0x65, 0x70, 0x61, 0x72, 0x61, 0x62, 0x6c, 0x65,
  0x5f, 0x63, 0x6f, 0x6e, 0x76, 0x32, 0x64, 0x5f, 0x31, 0x2f, 0x73, 0x65,
  0x70, 0x61, 0x72, 0x61, 0x62, 0x6c, 0x65, 0x5f, 0x63, 0x6f, 0x6e, 0x76,
  0x32, 0x64, 0x2f, 0x64, 0x65, 0x70, 0x74, 0x68, 0x77, 0x69, 0x73, 0x65,
  0x32, 0x00, 0x00, 0x00, 0x04, 0x00, 0x00, 0x00, 0x01, 0x00, 0x00, 0x00,
  0x08, 0x00, 0x00, 0x00, 0x08, 0x00, 0x00, 0x00, 0x20, 0x00, 0x00, 0x00,
  0xaa, 0xe3, 0xff, 0xff, 0x00, 0x00, 0x00, 0x01, 0x18, 0x00, 0x00, 0x00,
  0x28, 0x00, 0x00, 0x00, 0x44, 0x00, 0x00, 0x00, 0x17, 0x00, 0x00, 0x00,
  0x00, 0x00, 0x00, 0x09, 0x60, 0x00, 0x00, 0x00, 0x04, 0x00, 0x00, 0x00,
  0xff, 0xff, 0xff, 0xff, 0x08, 0x00, 0x00, 0x00, 0x08, 0x00, 0x00, 0x00,
  0x20, 0x00, 0x00, 0x00, 0x94, 0xe3, 0xff, 0xff, 0x08, 0x00, 0x00, 0x00,
  0x10, 0x00, 0x00, 0x00, 0x01, 0x00, 0x00, 0x00, 0x80, 0xff, 0xff, 0xff,
  0xff, 0xff, 0xff, 0xff, 0x01, 0x00, 0x00, 0x00, 0xcf, 0xaa, 0x75, 0x3d,
  0x22, 0x00, 0x00, 0x00, 0x73, 0x65, 0x71, 0x75, 0x65, 0x6e, 0x74, 0x69,
  0x61, 0x6c, 0x2f, 0x6d, 0x61, 0x78, 0x5f, 0x70, 0x6f, 0x6f, 0x6c, 0x69,
  0x6e, 0x67, 0x32, 0x64, 0x5f, 0x32, 0x2f, 0x4d, 0x61, 0x78, 0x50, 0x6f,
  0x6f, 0x6c, 0x00, 0x00, 0x04, 0x00, 0x00, 0x00, 0x01, 0x00, 0x00, 0x00,
  0x08, 0x00, 0x00, 0x00, 0x08, 0x00, 0x00, 0x00, 0x20, 0x00, 0x00, 0x00,
  0x3a, 0xe4, 0xff, 0xff, 0x00, 0x00, 0x00, 0x01, 0x18, 0x00, 0x00, 0x00,
  0x28, 0x00, 0x00, 0x00, 0x48, 0x00, 0x00, 0x00, 0x16, 0x00, 0x00, 0x00,
  0x00, 0x00, 0x00, 0x09, 0x20, 0x01, 0x00, 0x00, 0x04, 0x00, 0x00, 0x00,
  0xff, 0xff, 0xff, 0xff, 0x10, 0x00, 0x00, 0x00, 0x10, 0x00, 0x00, 0x00,
  0x20, 0x00, 0x00, 0x00, 0x24, 0xe4, 0xff, 0xff, 0x08, 0x00, 0x00, 0x00,
  0x14, 0x00, 0x00, 0x00, 0x01, 0x00, 0x00, 0x00, 0x80, 0xff, 0xff, 0xff,
  0xff, 0xff, 0xff, 0xff, 0x00, 0x00, 0x00, 0x00, 0x01, 0x00, 0x00, 0x00,
  0xcf, 0xaa, 0x75, 0x3d, 0xdd, 0x00, 0x00, 0x00, 0x73, 0x65, 0x71, 0x75,
  0x65, 0x6e, 0x74, 0x69, 0x61, 0x6c, 0x2f, 0x73, 0x65, 0x70, 0x61, 0x72,
  0x61, 0x62, 0x6c, 0x65, 0x5f, 0x63, 0x6f, 0x6e, 0x76, 0x32, 0x64, 0x2f,
  0x52, 0x65, 0x6c, 0x75, 0x3b, 0x73, 0x65, 0x71, 0x75, 0x65, 0x6e, 0x74,
  0x69, 0x61, 0x6c, 0x2f, 0x73, 0x65, 0x70, 0x61, 0x72, 0x61, 0x62, 0x6c,
  0x65, 0x5f, 0x63, 0x6f, 0x6e, 0x76, 0x32, 0x64, 0x2f, 0x42, 0x69, 0x61,
  0x73, 0x41, 0x64, 0x64, 0x3b, 0x73, 0x65, 0x71, 0x75, 0x65, 0x6e, 0x74,
  0x69, 0x61, 0x6c, 0x2f, 0x73, 0x65, 0x70, 0x61, 0x72, 0x61, 0x62, 0x6c,
  0x65, 0x5f, 0x63, 0x6f, 0x6e, 0x76, 0x32, 0x64, 0x5f, 0x31, 0x2f, 0x73,
  0x65, 0x70, 0x61, 0x72, 0x61, 0x62, 0x6c, 0x65, 0x5f, 0x63, 0x6f, 0x6e,
  0x76, 0x32, 0x64, 0x2f, 0x64, 0x65, 0x70, 0x74, 0x68, 0x77, 0x69, 0x73,
  0x65, 0x3b, 0x73, 0x65, 0x71, 0x75, 0x65, 0x6e, 0x74, 0x69, 0x61, 0x6c,
  0x2f, 0x73, 0x65, 0x70, 0x61, 0x72, 0x61, 0x62, 0x6c, 0x65, 0x5f, 0x63,
  0x6f, 0x6e, 0x76, 0x32, 0x64, 0x2f, 0x73, 0x65, 0x70, 0x61, 0x72, 0x61,
  0x62, 0x6c, 0x65, 0x5f, 0x63, 0x6f, 0x6e, 0x76, 0x32, 0x64, 0x3b, 0x73,
  0x65, 0x71, 0x75, 0x65, 0x6e, 0x74, 0x69, 0x61, 0x6c, 0x2f, 0x73, 0x65,
  0x70, 0x61, 0x72, 0x61, 0x62, 0x6c, 0x65, 0x5f, 0x63, 0x6f, 0x6e, 0x76,
  0x32, 0x64, 0x2f, 0x42, 0x69, 0x61, 0x73, 0x41, 0x64, 0x64, 0x2f, 0x52,
  0x65, 0x61, 0x64, 0x56, 0x61, 0x72, 0x69, 0x61, 0x62, 0x6c, 0x65, 0x4f,
  0x70, 0x00, 0x00, 0x00, 0x04, 0x00, 0x00, 0x00, 0x01, 0x00, 0x00, 0x00,
  0x10, 0x00, 0x00, 0x00, 0x10, 0x00, 0x00, 0x00, 0x20, 0x00, 0x00, 0x00,
  0x8a, 0xe5, 0xff, 0xff, 0x00, 0x00, 0x00, 0x01, 0x18, 0x00, 0x00, 0x00,
  0x28, 0x00, 0x00, 0x00, 0x48, 0x00, 0x00, 0x00, 0x15, 0x00, 0x00, 0x00,
  0x00, 0x00, 0x00, 0x09, 0x78, 0x00, 0x00, 0x00, 0x04, 0x00, 0x00, 0x00,
  0xff, 0xff, 0xff, 0xff, 0x10, 0x00, 0x00, 0x00, 0x10, 0x00, 0x00, 0x00,
  0x10, 0x00, 0x00, 0x00, 0x74, 0xe5, 0xff, 0xff, 0x08, 0x00, 0x00, 0x00,
  0x14, 0x00, 0x00, 0x00, 0x01, 0x00, 0x00, 0x00, 0x2b, 0x00, 0x00, 0x00,
  0x00, 0x00, 0x00, 0x00, 0x00, 0x00, 0x00, 0x00, 0x01, 0x00, 0x00, 0x00,
  0x56, 0x07, 0xd5, 0x3d, 0x37, 0x00, 0x00, 0x00, 0x73, 0x65, 0x71, 0x75,
  0x65, 0x6e, 0x74, 0x69, 0x61, 0x6c, 0x2f, 0x73, 0x65, 0x70, 0x61, 0x72,
  0x61, 0x62, 0x6c, 0x65, 0x5f, 0x63, 0x6f, 0x6e, 0x76, 0x32, 0x64, 0x2f,
  0x73, 0x65, 0x70, 0x61, 0x72, 0x61, 0x62, 0x6c, 0x65, 0x5f, 0x63, 0x6f,
  0x6e, 0x76, 0x32, 0x64, 0x2f, 0x64, 0x65, 0x70, 0x74, 0x68, 0x77, 0x69,
  0x73, 0x65, 0x32, 0x00, 0x04, 0x00, 0x00, 0x00, 0x01, 0x00, 0x00, 0x00,
  0x10, 0x00, 0x00, 0x00, 0x10, 0x00, 0x00, 0x00, 0x10, 0x00, 0x00, 0x00,
  0x32, 0xe6, 0xff, 0xff, 0x00, 0x00, 0x00, 0x01, 0x18, 0x00, 0x00, 0x00,
  0x28, 0x00, 0x00, 0x00, 0x44, 0x00, 0x00, 0x00, 0x14, 0x00, 0x00, 0x00,
  0x00, 0x00, 0x00, 0x09, 0x60, 0x00, 0x00, 0x00, 0x04, 0x00, 0x00, 0x00,
  0xff, 0xff, 0xff, 0xff, 0x10, 0x00, 0x00, 0x00, 0x10, 0x00, 0x00, 0x00,
  0x10, 0x00, 0x00, 0x00, 0x1c, 0xe6, 0xff, 0xff, 0x08, 0x00, 0x00, 0x00,
  0x10, 0x00, 0x00, 0x00, 0x01, 0x00, 0x00, 0x00, 0x80, 0xff, 0xff, 0xff,
  0xff, 0xff, 0xff, 0xff, 0x01, 0x00, 0x00, 0x00, 0x08, 0x56, 0x26, 0x3e,
  0x22, 0x00, 0x00, 0x00, 0x73, 0x65, 0x71, 0x75, 0x65, 0x6e, 0x74, 0x69,
  0x61, 0x6c, 0x2f, 0x6d, 0x61, 0x78, 0x5f, 0x70, 0x6f, 0x6f, 0x6c, 0x69,
  0x6e, 0x67, 0x32, 0x64, 0x5f, 0x31, 0x2f, 0x4d, 0x61, 0x78, 0x50, 0x6f,
  0x6f, 0x6c, 0x00, 0x00, 0x04, 0x00, 0x00, 0x00, 0x01, 0x00, 0x00, 0x00,
  0x10, 0x00, 0x00, 0x00, 0x10, 0x00, 0x00, 0x00, 0x10, 0x00, 0x00, 0x00,
  0xc2, 0xe6, 0xff, 0xff, 0x00, 0x00, 0x00, 0x01, 0x18, 0x00, 0x00, 0x00,
  0x28, 0x00, 0x00, 0x00, 0x44, 0x00, 0x00, 0x00, 0x13, 0x00, 0x00, 0x00,
  0x00, 0x00, 0x00, 0x09, 0xf0, 0x00, 0x00, 0x00, 0x04, 0x00, 0x00, 0x00,
  0xff, 0xff, 0xff, 0xff, 0x20, 0x00, 0x00, 0x00, 0x20, 0x00, 0x00, 0x00,
  0x10, 0x00, 0x00, 0x00, 0xac, 0xe6, 0xff, 0xff, 0x08, 0x00, 0x00, 0x00,
  0x10, 0x00, 0x00, 0x00, 0x01, 0x00, 0x00, 0x00, 0x80, 0xff, 0xff, 0xff,
  0xff, 0xff, 0xff, 0xff, 0x01, 0x00, 0x00, 0x00, 0x08, 0x56, 0x26, 0x3e,
  0xb1, 0x00, 0x00, 0x00, 0x73, 0x65, 0x71, 0x75, 0x65, 0x6e, 0x74, 0x69,
  0x61, 0x6c, 0x2f, 0x63, 0x6f, 0x6e, 0x76, 0x32, 0x64, 0x5f, 0x31, 0x2f,
  0x52, 0x65, 0x6c, 0x75, 0x3b, 0x73, 0x65, 0x71, 0x75, 0x65, 0x6e, 0x74,
  0x69, 0x61, 0x6c, 0x2f, 0x63, 0x6f, 0x6e, 0x76, 0x32, 0x64, 0x5f, 0x31,
  0x2f, 0x42, 0x69, 0x61, 0x73, 0x41, 0x64, 0x64, 0x3b, 0x73, 0x65, 0x71,
  0x75, 0x65, 0x6e, 0x74, 0x69, 0x61, 0x6c, 0x2f, 0x73, 0x65, 0x70, 0x61,
  0x72, 0x61, 0x62, 0x6c, 0x65, 0x5f, 0x63, 0x6f, 0x6e, 0x76, 0x32, 0x64,
  0x2f, 0x73, 0x65, 0x70, 0x61, 0x72, 0x61, 0x62, 0x6c, 0x65, 0x5f, 0x63,
  0x6f, 0x6e, 0x76, 0x32, 0x64, 0x2f, 0x64, 0x65, 0x70, 0x74, 0x68, 0x77,
  0x69, 0x73, 0x65, 0x3b, 0x73, 0x65, 0x71, 0x75, 0x65, 0x6e, 0x74, 0x69,
  0x61, 0x6c, 0x2f, 0x63, 0x6f, 0x6e, 0x76, 0x32, 0x64, 0x5f, 0x31, 0x2f,
  0x43, 0x6f, 0x6e, 0x76, 0x32, 0x44, 0x3b, 0x73, 0x65, 0x71, 0x75, 0x65,
  0x6e, 0x74, 0x69, 0x61, 0x6c, 0x2f, 0x63, 0x6f, 0x6e, 0x76, 0x32, 0x64,
  0x5f, 0x31, 0x2f, 0x42, 0x69, 0x61, 0x73, 0x41, 0x64, 0x64, 0x2f, 0x52,
  0x65, 0x61, 0x64, 0x56, 0x61, 0x72, 0x69, 0x61, 0x62, 0x6c, 0x65, 0x4f,
  0x70, 0x00, 0x00, 0x00, 0x04, 0x00, 0x00, 0x00, 0x01, 0x00, 0x00, 0x00,
  0x20, 0x00, 0x00, 0x00, 0x20, 0x00, 0x00, 0x00, 0x10, 0x00, 0x00, 0x00,
  0xe2, 0xe7, 0xff, 0xff, 0x00, 0x00, 0x00, 0x01, 0x18, 0x00, 0x00, 0x00,
  0x28, 0x00, 0x00, 0x00, 0x44, 0x00, 0x00, 0x00, 0x12, 0x00, 0x00, 0x00,
  0x00, 0x00, 0x00, 0x09, 0x60, 0x00, 0x00, 0x00, 0x04, 0x00, 0x00, 0x00,
  0xff, 0xff, 0xff, 0xff, 0x20, 0x00, 0x00, 0x00, 0x20, 0x00, 0x00, 0x00,
  0x08, 0x00, 0x00, 0x00, 0xcc, 0xe7, 0xff, 0xff, 0x08, 0x00, 0x00, 0x00,
  0x10, 0x00, 0x00, 0x00, 0x01, 0x00, 0x00, 0x00, 0x80, 0xff, 0xff, 0xff,
  0xff, 0xff, 0xff, 0xff, 0x01, 0x00, 0x00, 0x00, 0xce, 0x80, 0xf8, 0x3c,
  0x20, 0x00, 0x00, 0x00, 0x73, 0x65, 0x71, 0x75, 0x65, 0x6e, 0x74, 0x69,
  0x61, 0x6c, 0x2f, 0x6d, 0x61, 0x78, 0x5f, 0x70, 0x6f, 0x6f, 0x6c, 0x69,
  0x6e, 0x67, 0x32, 0x64, 0x2f, 0x4d, 0x61, 0x78, 0x50, 0x6f, 0x6f, 0x6c,
  0x00, 0x00, 0x00, 0x00, 0x04, 0x00, 0x00, 0x00, 0x01, 0x00, 0x00, 0x00,
  0x20, 0x00, 0x00, 0x00, 0x20, 0x00, 0x00, 0x00, 0x08, 0x00, 0x00, 0x00,
  0x72, 0xe8, 0xff, 0xff, 0x00, 0x00, 0x00, 0x01, 0x18, 0x00, 0x00, 0x00,
  0x28, 0x00, 0x00, 0x00, 0x44, 0x00, 0x00, 0x00, 0x11, 0x00, 0x00, 0x00,
  0x00, 0x00, 0x00, 0x09, 0xb0, 0x00, 0x00, 0x00, 0x04, 0x00, 0x00, 0x00,
  0xff, 0xff, 0xff, 0xff, 0x40, 0x00, 0x00, 0x00, 0x40, 0x00, 0x00, 0x00,
  0x08, 0x00, 0x00, 0x00, 0x5c, 0xe8, 0xff, 0xff, 0x08, 0x00, 0x00, 0x00,
  0x10, 0x00, 0x00, 0x00, 0x01, 0x00, 0x00, 0x00, 0x80, 0xff, 0xff, 0xff,
  0xff, 0xff, 0xff, 0xff, 0x01, 0x00, 0x00, 0x00, 0xce, 0x80, 0xf8, 0x3c,
  0x72, 0x00, 0x00, 0x00, 0x73, 0x65, 0x71, 0x75, 0x65, 0x6e, 0x74, 0x69,
  0x61, 0x6c, 0x2f, 0x63, 0x6f, 0x6e, 0x76, 0x32, 0x64, 0x2f, 0x52, 0x65,
  0x6c, 0x75, 0x3b, 0x73, 0x65, 0x71, 0x75, 0x65, 0x6e, 0x74, 0x69, 0x61,
  0x6c, 0x2f, 0x63, 0x6f, 0x6e, 0x76, 0x32, 0x64, 0x2f, 0x42, 0x69, 0x61,
  0x73, 0x41, 0x64, 0x64, 0x3b, 0x73, 0x65, 0x71, 0x75, 0x65, 0x6e, 0x74,
  0x69, 0x61, 0x6c, 0x2f, 0x63, 0x6f, 0x6e, 0x76, 0x32, 0x64, 0x2f, 0x43,
  0x6f, 0x6e, 0x76, 0x32, 0x44, 0x3b, 0x73, 0x65, 0x71, 0x75, 0x65, 0x6e,
  0x74, 0x69, 0x61, 0x6c, 0x2f, 0x63, 0x6f, 0x6e, 0x76, 0x32, 0x64, 0x2f,
  0x42, 0x69, 0x61, 0x73, 0x41, 0x64, 0x64, 0x2f, 0x52, 0x65, 0x61, 0x64,
  0x56, 0x61, 0x72, 0x69, 0x61, 0x62, 0x6c, 0x65, 0x4f, 0x70, 0x00, 0x00,
  0x04, 0x00, 0x00, 0x00, 0x01, 0x00, 0x00, 0x00, 0x40, 0x00, 0x00, 0x00,
  0x40, 0x00, 0x00, 0x00, 0x08, 0x00, 0x00, 0x00, 0xd6, 0xe9, 0xff, 0xff,
  0x00, 0x00, 0x00, 0x01, 0x14, 0x00, 0x00, 0x00, 0x88, 0x00, 0x00, 0x00,
  0x10, 0x00, 0x00, 0x00, 0x00, 0x00, 0x00, 0x09, 0x9c, 0x00, 0x00, 0x00,
  0x24, 0xe9, 0xff, 0xff, 0x08, 0x00, 0x00, 0x00, 0x4c, 0x00, 0x00, 0x00,
  0x08, 0x00, 0x00, 0x00, 0x00, 0x00, 0x00, 0x00, 0x00, 0x00, 0x00, 0x00,
  0x00, 0x00, 0x00, 0x00, 0x00, 0x00, 0x00, 0x00, 0x00, 0x00, 0x00, 0x00,
  0x00, 0x00, 0x00, 0x00, 0x00, 0x00, 0x00, 0x00, 0x00, 0x00, 0x00, 0x00,
  0x00, 0x00, 0x00, 0x00, 0x00, 0x00, 0x00, 0x00, 0x00, 0x00, 0x00, 0x00,
  0x00, 0x00, 0x00, 0x00, 0x00, 0x00, 0x00, 0x00, 0x00, 0x00, 0x00, 0x00,
  0x00, 0x00, 0x00, 0x00, 0x00, 0x00, 0x00, 0x00, 0x00, 0x00, 0x00, 0x00,
  0x08, 0x00, 0x00, 0x00, 0xf0, 0xcc, 0x88, 0x3b, 0xda, 0x85, 0x02, 0x3b,
  0x76, 0x80, 0xbc, 0x3b, 0x31, 0xb2, 0x29, 0x3c, 0x57, 0x94, 0x8b, 0x3c,
  0xc7, 0xb8, 0x3d, 0x3b, 0x73, 0x75, 0xa4, 0x3a, 0x5f, 0xdb, 0xdc, 0x3a,
  0x18, 0x00, 0x00, 0x00, 0x73, 0x65, 0x71, 0x75, 0x65, 0x6e, 0x74, 0x69,
  0x61, 0x6c, 0x2f, 0x63, 0x6f, 0x6e, 0x76, 0x32, 0x64, 0x2f, 0x43, 0x6f,
  0x6e, 0x76, 0x32, 0x44, 0x00, 0x00, 0x00, 0x00, 0x04, 0x00, 0x00, 0x00,
  0x08, 0x00, 0x00, 0x00, 0x03, 0x00, 0x00, 0x00, 0x03, 0x00, 0x00, 0x00,
  0x01, 0x00, 0x00, 0x00, 0x9e, 0xea, 0xff, 0xff, 0x00, 0x00, 0x00, 0x01,
  0x14, 0x00, 0x00, 0x00, 0x84, 0x00, 0x00, 0x00, 0x0f, 0x00, 0x00, 0x00,
  0x00, 0x00, 0x00, 0x02, 0xa8, 0x00, 0x00, 0x00, 0xec, 0xe9, 0xff, 0xff,
  0x08, 0x00, 0x00, 0x00, 0x48, 0x00, 0x00, 0x00, 0x08, 0x00, 0x00, 0x00,
  0x00, 0x00, 0x00, 0x00, 0x00, 0x00, 0x00, 0x00, 0x00, 0x00, 0x00, 0x00,
  0x00, 0x00, 0x00, 0x00, 0x00, 0x00, 0x00, 0x00, 0x00, 0x00, 0x00, 0x00,
  0x00, 0x00, 0x00, 0x00, 0x00, 0x00, 0x00, 0x00, 0x00, 0x00, 0x00, 0x00,
  0x00, 0x00, 0x00, 0x00, 0x00, 0x00, 0x00, 0x00, 0x00, 0x00, 0x00, 0x00,
  0x00, 0x00, 0x00, 0x00, 0x00, 0x00, 0x00, 0x00, 0x00, 0x00, 0x00, 0x00,
  0x00, 0x00, 0x00, 0x00, 0x08, 0x00, 0x00, 0x00, 0x47, 0x56, 0x89, 0x37,
  0xe3, 0x08, 0x03, 0x37, 0xb4, 0x3d, 0xbd, 0x37, 0x8e, 0x5c, 0x2a, 0x38,
  0x78, 0x20, 0x8c, 0x38, 0x3f, 0x77, 0x3e, 0x37, 0x8e, 0x1a, 0xa5, 0x36,
  0x19, 0xb9, 0xdd, 0x36, 0x28, 0x00, 0x00, 0x00, 0x73, 0x65, 0x71, 0x75,
  0x65, 0x6e, 0x74, 0x69, 0x61, 0x6c, 0x2f, 0x63, 0x6f, 0x6e, 0x76, 0x32,
  0x64, 0x2f, 0x42, 0x69, 0x61, 0x73, 0x41, 0x64, 0x64, 0x2f, 0x52, 0x65,
  0x61, 0x64, 0x56, 0x61, 0x72, 0x69, 0x61, 0x62, 0x6c, 0x65, 0x4f, 0x70,
  0x00, 0x00, 0x00, 0x00, 0x01, 0x00, 0x00, 0x00, 0x08, 0x00, 0x00, 0x00,
  0x66, 0xeb, 0xff, 0xff, 0x00, 0x00, 0x00, 0x01, 0x14, 0x00, 0x00, 0x00,
  0xe8, 0x00, 0x00, 0x00, 0x0e, 0x00, 0x00, 0x00, 0x00, 0x00, 0x00, 0x09,
  0xfc, 0x00, 0x00, 0x00, 0xb4, 0xea, 0xff, 0xff, 0x08, 0x00, 0x00, 0x00,
  0x8c, 0x00, 0x00, 0x00, 0x10, 0x00, 0x00, 0x00, 0x00, 0x00, 0x00, 0x00,
  0x00, 0x00, 0x00, 0x00, 0x00, 0x00, 0x00, 0x00, 0x00, 0x00, 0x00, 0x00,
  0x00, 0x00, 0x00, 0x00, 0x00, 0x00, 0x00, 0x00, 0x00, 0x00, 0x00, 0x00,
  0x00, 0x00, 0x00, 0x00, 0x00, 0x00, 0x00, 0x00, 0x00, 0x00, 0x00, 0x00,
  0x00, 0x00, 0x00, 0x00, 0x00, 0x00, 0x00, 0x00, 0x00, 0x00, 0x00, 0x00,
  0x00, 0x00, 0x00, 0x00, 0x00, 0x00, 0x00, 0x00, 0x00, 0x00, 0x00, 0x00,
  0x00, 0x00, 0x00, 0x00, 0x00, 0x00, 0x00, 0x00, 0x00, 0x00, 0x00, 0x00,
  0x00, 0x00, 0x00, 0x00, 0x00, 0x00, 0x00, 0x00, 0x00, 0x00, 0x00, 0x00,
  0x00, 0x00, 0x00, 0x00, 0x00, 0x00, 0x00, 0x00, 0x00, 0x00, 0x00, 0x00,
  0x00, 0x00, 0x00, 0x00, 0x00, 0x00, 0x00, 0x00, 0x00, 0x00, 0x00, 0x00,
  0x00, 0x00, 0x00, 0x00, 0x00, 0x00, 0x00, 0x00, 0x00, 0x00, 0x00, 0x00,
  0x00, 0x00, 0x00, 0x00, 0x00, 0x00, 0x00, 0x00, 0x10, 0x00, 0x00, 0x00,
  0xdb, 0xea, 0x32, 0x3c, 0x66, 0x3b, 0x28, 0x3c, 0x65, 0x69, 0x0a, 0x3c,
  0x25, 0x69, 0x1e, 0x3c, 0xe8, 0xe4, 0xb6, 0x3b, 0x95, 0x55, 0x34, 0x3b,
  0x5a, 0x53, 0x90, 0x3b, 0x97, 0x93, 0x35, 0x3b, 0x4a, 0x16, 0x3b, 0x3b,
  0x0b, 0xe6, 0x8f, 0x3b, 0x39, 0x6a, 0x9d, 0x3b, 0xed, 0xfb, 0x8f, 0x3b,
  0x60, 0x9e, 0x0e, 0x3c, 0xde, 0x8b, 0x62, 0x3c, 0x36, 0xc5, 0x8e, 0x3b,
  0x93, 0x6a, 0xcb, 0x3b, 0x1a, 0x00, 0x00, 0x00, 0x73, 0x65, 0x71, 0x75,
  0x65, 0x6e, 0x74, 0x69, 0x61, 0x6c, 0x2f, 0x63, 0x6f, 0x6e, 0x76, 0x32,
  0x64, 0x5f, 0x31, 0x2f, 0x43, 0x6f, 0x6e, 0x76, 0x32, 0x44, 0x00, 0x00,
  0x04, 0x00, 0x00, 0x00, 0x10, 0x00, 0x00, 0x00, 0x03, 0x00, 0x00, 0x00,
  0x03, 0x00, 0x00, 0x00, 0x08, 0x00, 0x00, 0x00, 0x8e, 0xec, 0xff, 0xff,
  0x00, 0x00, 0x00, 0x01, 0x14, 0x00, 0x00, 0x00, 0xe8, 0x00, 0x00, 0x00,
  0x0d, 0x00, 0x00, 0x00, 0x00, 0x00, 0x00, 0x02, 0x0c, 0x01, 0x00, 0x00,
  0xdc, 0xeb, 0xff, 0xff, 0x08, 0x00, 0x00, 0x00, 0x8c, 0x00, 0x00, 0x00,
  0x10, 0x00, 0x00, 0x00, 0x00, 0x00, 0x00, 0x00, 0x00, 0x00, 0x00, 0x00,
  0x00, 0x00, 0x00, 0x00, 0x00, 0x00, 0x00, 0x00, 0x00, 0x00, 0x00, 0x00,
  0x00, 0x00, 0x00, 0x00, 0x00, 0x00, 0x00, 0x00, 0x00, 0x00, 0x00, 0x00,
  0x00, 0x00, 0x00, 0x00, 0x00, 0x00, 0x00, 0x00, 0x00, 0x00, 0x00, 0x00,
  0x00, 0x00, 0x00, 0x00, 0x00, 0x00, 0x00, 0x00, 0x00, 0x00, 0x00, 0x00,
  0x00, 0x00, 0x00, 0x00, 0x00, 0x00, 0x00, 0x00, 0x00, 0x00, 0x00, 0x00,
  0x00, 0x00, 0x00, 0x00, 0x00, 0x00, 0x00, 0x00, 0x00, 0x00, 0x00, 0x00,
  0x00, 0x00, 0x00, 0x00, 0x00, 0x00, 0x00, 0x00, 0x00, 0x00, 0x00, 0x00,
  0x00, 0x00, 0x00, 0x00, 0x00, 0x00, 0x00, 0x00, 0x00, 0x00, 0x00, 0x00,
  0x00, 0x00, 0x00, 0x00, 0x00, 0x00, 0x00, 0x00, 0x00, 0x00, 0x00, 0x00,
  0x00, 0x00, 0x00, 0x00, 0x00, 0x00, 0x00, 0x00, 0x00, 0x00, 0x00, 0x00,
  0x00, 0x00, 0x00, 0x00, 0x10, 0x00, 0x00, 0x00, 0x8a, 0xad, 0xad, 0x39,
  0x30, 0x4e, 0xa3, 0x39, 0xbe, 0x5b, 0x86, 0x39, 0x90, 0xc5, 0x99, 0x39,
  0xc6, 0x89, 0x31, 0x39, 0xa4, 0x0d, 0xaf, 0x38, 0x5d, 0x19, 0x0c, 0x39,
  0x56, 0x42, 0xb0, 0x38, 0xb9, 0x9b, 0xb5, 0x38, 0x41, 0xaf, 0x0b, 0x39,
  0x1b, 0xce, 0x18, 0x39, 0x7f, 0xc4, 0x0b, 0x39, 0x2f, 0x71, 0x8a, 0x39,
  0x7b, 0xe9, 0xdb, 0x39, 0xe2, 0x96, 0x0a, 0x39, 0x97, 0x75, 0x45, 0x39,
  0x2a, 0x00, 0x00, 0x00, 0x73, 0x65, 0x71, 0x75, 0x65, 0x6e, 0x74, 0x69,
  0x61, 0x6c, 0x2f, 0x63, 0x6f, 0x6e, 0x76, 0x32, 0x64, 0x5f, 0x31, 0x2f,
  0x42, 0x69, 0x61, 0x73, 0x41, 0x64, 0x64, 0x2f, 0x52, 0x65, 0x61, 0x64,
  0x56, 0x61, 0x72, 0x69, 0x61, 0x62, 0x6c, 0x65, 0x4f, 0x70, 0x00, 0x00,
  0x01, 0x00, 0x00, 0x00, 0x10, 0x00, 0x00, 0x00, 0xba, 0xed, 0xff, 0xff,
  0x00, 0x00, 0x00, 0x01, 0x14, 0x00, 0x00, 0x00, 0xe8, 0x00, 0x00, 0x00,
  0x0c, 0x00, 0x00, 0x00, 0x00, 0x00, 0x00, 0x09, 0x18, 0x01, 0x00, 0x00,
  0x9a, 0xf9, 0xff, 0xff, 0x03, 0x00, 0x00, 0x00, 0x08, 0x00, 0x00, 0x00,
  0x88, 0x00, 0x00, 0x00, 0x10, 0x00, 0x00, 0x00, 0x00, 0x00, 0x00, 0x00,
  0x00, 0x00, 0x00, 0x00, 0x00, 0x00, 0x00, 0x00, 0x00, 0x00, 0x00, 0x00,
  0x00, 0x00, 0x00, 0x00, 0x00, 0x00, 0x00, 0x00, 0x00, 0x00, 0x00, 0x00,
  0x00, 0x00, 0x00, 0x00, 0x00, 0x00, 0x00, 0x00, 0x00, 0x00, 0x00, 0x00,
  0x00, 0x00, 0x00, 0x00, 0x00, 0x00, 0x00, 0x00, 0x00, 0x00, 0x00, 0x00,
  0x00, 0x00, 0x00, 0x00, 0x00, 0x00, 0x00, 0x00, 0x00, 0x00, 0x00, 0x00,
  0x00, 0x00, 0x00, 0x00, 0x00, 0x00, 0x00, 0x00, 0x00, 0x00, 0x00, 0x00,
  0x00, 0x00, 0x00, 0x00, 0x00, 0x00, 0x00, 0x00, 0x00, 0x00, 0x00, 0x00,
  0x00, 0x00, 0x00, 0x00, 0x00, 0x00, 0x00, 0x00, 0x00, 0x00, 0x00, 0x00,
  0x00, 0x00, 0x00, 0x00, 0x00, 0x00, 0x00, 0x00, 0x00, 0x00, 0x00, 0x00,
  0x00, 0x00, 0x00, 0x00, 0x00, 0x00, 0x00, 0x00, 0x00, 0x00, 0x00, 0x00,
  0x00, 0x00, 0x00, 0x00, 0x10, 0x00, 0x00, 0x00, 0x48, 0x07, 0x8a, 0x3b,
  0xbe, 0x46, 0x2d, 0x3c, 0x09, 0x78, 0xd1, 0x3b, 0x35, 0x42, 0x05, 0x3b,
  0x98, 0x47, 0x42, 0x3b, 0xec, 0x85, 0x90, 0x3a, 0xeb, 0x5c, 0x4e, 0x3b,
  0x37, 0xa0, 0x6e, 0x3a, 0x0e, 0x3c, 0xba, 0x3a, 0x14, 0x3a, 0xa2, 0x3a,
  0xfa, 0xe7, 0xa4, 0x3a, 0x70, 0xcb, 0xa0, 0x3a, 0x67, 0xa3, 0x96, 0x3a,
  0xe6, 0x84, 0x2e, 0x3b, 0xf7, 0x50, 0x1d, 0x3b, 0x01, 0x5d, 0x57, 0x3b,
  0x37, 0x00, 0x00, 0x00, 0x73, 0x65, 0x71, 0x75, 0x65, 0x6e, 0x74, 0x69,
  0x61, 0x6c, 0x2f, 0x73, 0x65, 0x70, 0x61, 0x72, 0x61, 0x62, 0x6c, 0x65,
  0x5f, 0x63, 0x6f, 0x6e, 0x76, 0x32, 0x64, 0x2f, 0x73, 0x65, 0x70, 0x61,
  0x72, 0x61, 0x62, 0x6c, 0x65, 0x5f, 0x63, 0x6f, 0x6e, 0x76, 0x32, 0x64,
  0x2f, 0x64, 0x65, 0x70, 0x74, 0x68, 0x77, 0x69, 0x73, 0x65, 0x31, 0x00,
  0x04, 0x00, 0x00, 0x00, 0x01, 0x00, 0x00, 0x00, 0x03, 0x00, 0x00, 0x00,
  0x03, 0x00, 0x00, 0x00, 0x10, 0x00, 0x00, 0x00, 0xfe, 0xee, 0xff, 0xff,
  0x00, 0x00, 0x00, 0x01, 0x14, 0x00, 0x00, 0x00, 0xe8, 0x00, 0x00, 0x00,
  0x0b, 0x00, 0x00, 0x00, 0x00, 0x00, 0x00, 0x02, 0x18, 0x01, 0x00, 0x00,
  0x4c, 0xee, 0xff, 0xff, 0x08, 0x00, 0x00, 0x00, 0x8c, 0x00, 0x00, 0x00,
  0x10, 0x00, 0x00, 0x00, 0x00, 0x00, 0x00, 0x00, 0x00, 0x00, 0x00, 0x00,
  0x00, 0x00, 0x00, 0x00, 0x00, 0x00, 0x00, 0x00, 0x00, 0x00, 0x00, 0x00,
  0x00, 0x00, 0x00, 0x00, 0x00, 0x00, 0x00, 0x00, 0x00, 0x00, 0x00, 0x00,
  0x00, 0x00, 0x00, 0x00, 0x00, 0x00, 0x00, 0x00, 0x00, 0x00, 0x00, 0x00,
  0x00, 0x00, 0x00, 0x00, 0x00, 0x00, 0x00, 0x00, 0x00, 0x00, 0x00, 0x00,
  0x00, 0x00, 0x00, 0x00, 0x00, 0x00, 0x00, 0x00, 0x00, 0x00, 0x00, 0x00,
  0x00, 0x00, 0x00, 0x00, 0x00, 0x00, 0x00, 0x00, 0x00, 0x00, 0x00, 0x00,
  0x00, 0x00, 0x00, 0x00, 0x00, 0x00, 0x00, 0x00, 0x00, 0x00, 0x00, 0x00,
  0x00, 0x00, 0x00, 0x00, 0x00, 0x00, 0x00, 0x00, 0x00, 0x00, 0x00, 0x00,
  0x00, 0x00, 0x00, 0x00, 0x00, 0x00, 0x00, 0x00, 0x00, 0x00, 0x00, 0x00,
  0x00, 0x00, 0x00, 0x00, 0x00, 0x00, 0x00, 0x00, 0x00, 0x00, 0x00, 0x00,
  0x00, 0x00, 0x00, 0x00, 0x10, 0x00, 0x00, 0x00, 0x37, 0x5e, 0x33, 0x3a,
  0x35, 0x2c, 0xe1, 0x3a, 0x3b, 0x1a, 0x88, 0x3a, 0x6e, 0x2b, 0xad, 0x39,
  0x6d, 0x77, 0xfc, 0x39, 0xd1, 0xce, 0x3b, 0x39, 0x9a, 0x15, 0x06, 0x3a,
  0x15, 0x0c, 0x1b, 0x39, 0x0e, 0x03, 0x72, 0x39, 0x5b, 0xd0, 0x52, 0x39,
  0xae, 0x4b, 0x56, 0x39, 0xe8, 0xf3, 0x50, 0x39, 0x29, 0xc1, 0x43, 0x39,
  0xa6, 0xc9, 0xe2, 0x39, 0xbd, 0x6e, 0xcc, 0x39, 0xaf, 0xee, 0x0b, 0x3a,
  0x36, 0x00, 0x00, 0x00, 0x73, 0x65, 0x71, 0x75, 0x65, 0x6e, 0x74, 0x69,
  0x61, 0x6c, 0x2f, 0x73, 0x65, 0x70, 0x61, 0x72, 0x61, 0x62, 0x6c, 0x65,
  0x5f, 0x63, 0x6f, 0x6e, 0x76, 0x32, 0x64, 0x2f, 0x73, 0x65, 0x70, 0x61,
  0x72, 0x61, 0x62, 0x6c, 0x65, 0x5f, 0x63, 0x6f, 0x6e, 0x76, 0x32, 0x64,
  0x2f, 0x64, 0x65, 0x70, 0x74, 0x68, 0x77, 0x69, 0x73, 0x65, 0x00, 0x00,
  0x01, 0x00, 0x00, 0x00, 0x10, 0x00, 0x00, 0x00, 0x36, 0xf0, 0xff, 0xff,
  0x00, 0x00, 0x00, 0x01, 0x14, 0x00, 0x00, 0x00, 0xa4, 0x01, 0x00, 0x00,
  0x0a, 0x00, 0x00, 0x00, 0x00, 0x00, 0x00, 0x09, 0xcc, 0x01, 0x00, 0x00,
  0x84, 0xef, 0xff, 0xff, 0x08, 0x00, 0x00, 0x00, 0x08, 0x01, 0x00, 0x00,
  0x20, 0x00, 0x00, 0x00, 0x00, 0x00, 0x00, 0x00, 0x00, 0x00, 0x00, 0x00,
  0x00, 0x00, 0x00, 0x00, 0x00, 0x00, 0x00, 0x00, 0x00, 0x00, 0x00, 0x00,
  0x00, 0x00, 0x00, 0x00, 0x00, 0x00, 0x00, 0x00, 0x00, 0x00, 0x00, 0x00,
  0x00, 0x00, 0x00, 0x00, 0x00, 0x00, 0x00, 0x00, 0x00, 0x00, 0x00, 0x00,
  0x00, 0x00, 0x00, 0x00, 0x00, 0x00, 0x00, 0x00, 0x00, 0x00, 0x00, 0x00,
  0x00, 0x00, 0x00, 0x00, 0x00, 0x00, 0x00, 0x00, 0x00, 0x00, 0x00, 0x00,
  0x00, 0x00, 0x00, 0x00, 0x00, 0x00, 0x00, 0x00, 0x00, 0x00, 0x00, 0x00,
  0x00, 0x00, 0x00, 0x00, 0x00, 0x00, 0x00, 0x00, 0x00, 0x00, 0x00, 0x00,
  0x00, 0x00, 0x00, 0x00, 0x00, 0x00, 0x00, 0x00, 0x00, 0x00, 0x00, 0x00,
  0x00, 0x00, 0x00, 0x00, 0x00, 0x00, 0x00, 0x00, 0x00, 0x00, 0x00, 0x00,
  0x00, 0x00, 0x00, 0x00, 0x00, 0x00, 0x00, 0x00, 0x00, 0x00, 0x00, 0x00,
  0x00, 0x00, 0x00, 0x00, 0x00, 0x00, 0x00, 0x00, 0x00, 0x00, 0x00, 0x00,
  0x00, 0x00, 0x00, 0x00, 0x00, 0x00, 0x00, 0x00, 0x00, 0x00, 0x00, 0x00,
  0x00, 0x00, 0x00, 0x00, 0x00, 0x00, 0x00, 0x00, 0x00, 0x00, 0x00, 0x00,
  0x00, 0x00, 0x00, 0x00, 0x00, 0x00, 0x00, 0x00, 0x00, 0x00, 0x00, 0x00,
  0x00, 0x00, 0x00, 0x00, 0x00, 0x00, 0x00, 0x00, 0x00, 0x00, 0x00, 0x00,
  0x00, 0x00, 0x00, 0x00, 0x00, 0x00, 0x00, 0x00, 0x00, 0x00, 0x00, 0x00,
  0x00, 0x00, 0x00, 0x00, 0x00, 0x00, 0x00, 0x00, 0x00, 0x00, 0x00, 0x00,
  0x00, 0x00, 0x00, 0x00, 0x00, 0x00, 0x00, 0x00, 0x00, 0x00, 0x00, 0x00,
  0x00, 0x00, 0x00, 0x00, 0x00, 0x00, 0x00, 0x00, 0x00, 0x00, 0x00, 0x00,
  0x00, 0x00, 0x00, 0x00, 0x00, 0x00, 0x00, 0x00, 0x00, 0x00, 0x00, 0x00,
  0x00, 0x00, 0x00, 0x00, 0x00, 0x00, 0x00, 0x00, 0x20, 0x00, 0x00, 0x00,
  0x8e, 0xa6, 0x16, 0x3b, 0x26, 0x57, 0x20, 0x3b, 0xa4, 0x26, 0x52, 0x3b,
  0x51, 0x91, 0x4a, 0x3b, 0x29, 0xe2, 0x2f, 0x3b, 0xe7, 0x06, 0xed, 0x3b,
  0x23, 0xca, 0x51, 0x3b, 0x5b, 0xd0, 0x38, 0x3b, 0x80, 0x6f, 0x14, 0x3b,
  0x43, 0xc7, 0x14, 0x3b, 0x44, 0xad, 0x9a, 0x3b, 0x1c, 0x3f, 0x4d, 0x3c,
  0xd6, 0xf7, 0x65, 0x3b, 0x8f, 0xe8, 0xff, 0x3a, 0x76, 0xdb, 0x50, 0x3b,
  0xfe, 0xab, 0x50, 0x3b, 0xb2, 0x77, 0x7f, 0x3c, 0x3b, 0x56, 0x04, 0x3b,
  0xb6, 0xaf, 0x1a, 0x3b, 0x65, 0xd2, 0x19, 0x3b, 0xa1, 0xf6, 0xd1, 0x3a,
  0xfe, 0x14, 0x0b, 0x3b, 0x97, 0x90, 0x2a, 0x3b, 0x57, 0x2a, 0xe3, 0x3b,
  0xfb, 0xe6, 0x27, 0x3b, 0x45, 0x5a, 0x2c, 0x3b, 0xa5, 0x41, 0x28, 0x3b,
  0x73, 0xef, 0x65, 0x3b, 0x43, 0x01, 0x3b, 0x3b, 0xdf, 0x32, 0x10, 0x3c,
  0xfd, 0xe8, 0xfb, 0x3a, 0xbb, 0xc1, 0x49, 0x3b, 0x2c, 0x00, 0x00, 0x00,
  0x73, 0x65, 0x71, 0x75, 0x65, 0x6e, 0x74, 0x69, 0x61, 0x6c, 0x2f, 0x73,
  0x65, 0x70, 0x61, 0x72, 0x61, 0x62, 0x6c, 0x65, 0x5f, 0x63, 0x6f, 0x6e,
  0x76, 0x32, 0x64, 0x2f, 0x73, 0x65, 0x70, 0x61, 0x72, 0x61, 0x62, 0x6c,
  0x65, 0x5f, 0x63, 0x6f, 0x6e, 0x76, 0x32, 0x64, 0x00, 0x00, 0x00, 0x00,
  0x04, 0x00, 0x00, 0x00, 0x20, 0x00, 0x00, 0x00, 0x01, 0x00, 0x00, 0x00,
  0x01, 0x00, 0x00, 0x00, 0x10, 0x00, 0x00, 0x00, 0x2e, 0xf2, 0xff, 0xff,
  0x00, 0x00, 0x00, 0x01, 0x14, 0x00, 0x00, 0x00, 0xa4, 0x01, 0x00, 0x00,
  0x09, 0x00, 0x00, 0x00, 0x00, 0x00, 0x00, 0x02, 0xd0, 0x01, 0x00, 0x00,
  0x7c, 0xf1, 0xff, 0xff, 0x08, 0x00, 0x00, 0x00, 0x08, 0x01, 0x00, 0x00,
  0x20, 0x00, 0x00, 0x00, 0x00, 0x00, 0x00, 0x00, 0x00, 0x00, 0x00, 0x00,
  0x00, 0x00, 0x00, 0x00, 0x00, 0x00, 0x00, 0x00, 0x00, 0x00, 0x00, 0x00,
  0x00, 0x00, 0x00, 0x00, 0x00, 0x00, 0x00, 0x00, 0x00, 0x00, 0x00, 0x00,
  0x00, 0x00, 0x00, 0x00, 0x00, 0x00, 0x00, 0x00, 0x00, 0x00, 0x00, 0x00,
  0x00, 0x00, 0x00, 0x00, 0x00, 0x00, 0x00, 0x00, 0x00, 0x00, 0x00, 0x00,
  0x00, 0x00, 0x00, 0x00, 0x00, 0x00, 0x00, 0x00, 0x00, 0x00, 0x00, 0x00,
  0x00, 0x00, 0x00, 0x00, 0x00, 0x00, 0x00, 0x00, 0x00, 0x00, 0x00, 0x00,
  0x00, 0x00, 0x00, 0x00, 0x00, 0x00, 0x00, 0x00, 0x00, 0x00, 0x00, 0x00,
  0x00, 0x00, 0x00, 0x00, 0x00, 0x00, 0x00, 0x00, 0x00, 0x00, 0x00, 0x00,
  0x00, 0x00, 0x00, 0x00, 0x00, 0x00, 0x00, 0x00, 0x00, 0x00, 0x00, 0x00,
  0x00, 0x00, 0x00, 0x00, 0x00, 0x00, 0x00, 0x00, 0x00, 0x00, 0x00, 0x00,
  0x00, 0x00, 0x00, 0x00, 0x00, 0x00, 0x00, 0x00, 0x00, 0x00, 0x00, 0x00,
  0x00, 0x00, 0x00, 0x00, 0x00, 0x00, 0x00, 0x00, 0x00, 0x00, 0x00, 0x00,
  0x00, 0x00, 0x00, 0x00, 0x00, 0x00, 0x00, 0x00, 0x00, 0x00, 0x00, 0x00,
  0x00, 0x00, 0x00, 0x00, 0x00, 0x00, 0x00, 0x00, 0x00, 0x00, 0x00, 0x00,
  0x00, 0x00, 0x00, 0x00, 0x00, 0x00, 0x00, 0x00, 0x00, 0x00, 0x00, 0x00,
  0x00, 0x00, 0x00, 0x00, 0x00, 0x00, 0x00, 0x00, 0x00, 0x00, 0x00, 0x00,
  0x00, 0x00, 0x00, 0x00, 0x00, 0x00, 0x00, 0x00, 0x00, 0x00, 0x00, 0x00,
  0x00, 0x00, 0x00, 0x00, 0x00, 0x00, 0x00, 0x00, 0x00, 0x00, 0x00, 0x00,
  0x00, 0x00, 0x00, 0x00, 0x00, 0x00, 0x00, 0x00, 0x00, 0x00, 0x00, 0x00,
  0x00, 0x00, 0x00, 0x00, 0x00, 0x00, 0x00, 0x00, 0x00, 0x00, 0x00, 0x00,
  0x00, 0x00, 0x00, 0x00, 0x00, 0x00, 0x00, 0x00, 0x20, 0x00, 0x00, 0x00,
  0xcb, 0xb9, 0x7a, 0x39, 0x1b, 0x6d, 0x85, 0x39, 0x2c, 0xe0, 0xae, 0x39,
  0xb6, 0x90, 0xa8, 0x39, 0x36, 0x5c, 0x92, 0x39, 0x89, 0x3d, 0x45, 0x3a,
  0x32, 0x93, 0xae, 0x39, 0xa7, 0xca, 0x99, 0x39, 0x0d, 0x0a, 0x77, 0x39,
  0x1c, 0x9c, 0x77, 0x39, 0x98, 0xb6, 0x00, 0x3a, 0x64, 0xcb, 0xaa, 0x3a,
  0xcc, 0x5d, 0xbf, 0x39, 0xd4, 0xf3, 0x54, 0x39, 0x95, 0xcc, 0xad, 0x39,
  0x15, 0xa5, 0xad, 0x39, 0xe9, 0x95, 0xd4, 0x3a, 0x14, 0x3f, 0x5c, 0x39,
  0xa1, 0xb8, 0x80, 0x39, 0x76, 0x00, 0x80, 0x39, 0x38, 0xb8, 0x2e, 0x39,
  0xe7, 0x78, 0x67, 0x39, 0x31, 0xef, 0x8d, 0x39, 0xbd, 0x08, 0x3d, 0x3a,
  0xff, 0xb7, 0x8b, 0x39, 0x0c, 0x6c, 0x8f, 0x39, 0x71, 0x03, 0x8c, 0x39,
  0xd1, 0x56, 0xbf, 0x39, 0x69, 0x9d, 0x9b, 0x39, 0xeb, 0xfc, 0x6f, 0x3a,
  0x13, 0xa0, 0x51, 0x39, 0xf9, 0xe3, 0xa7, 0x39, 0x32, 0x00, 0x00, 0x00,
  0x73, 0x65, 0x71, 0x75, 0x65, 0x6e, 0x74, 0x69, 0x61, 0x6c, 0x2f, 0x73,
  0x65, 0x70, 0x61, 0x72, 0x61, 0x62, 0x6c, 0x65, 0x5f, 0x63, 0x6f, 0x6e,
  0x76, 0x32, 0x64, 0x2f, 0x42, 0x69, 0x61, 0x73, 0x41, 0x64, 0x64, 0x2f,
  0x52, 0x65, 0x61, 0x64, 0x56, 0x61, 0x72, 0x69, 0x61, 0x62, 0x6c, 0x65,
  0x4f, 0x70, 0x00, 0x00, 0x01, 0x00, 0x00, 0x00, 0x20, 0x00, 0x00, 0x00,
  0x1e, 0xf4, 0xff, 0xff, 0x00, 0x00, 0x00, 0x01, 0x28, 0x00, 0x00, 0x00,
  0xc0, 0x01, 0x00, 0x00, 0x08, 0x00, 0x00, 0x00, 0x00, 0x00, 0x00, 0x09,
  0xf4, 0x01, 0x00, 0x00, 0x00, 0x00, 0x12, 0x00, 0x10, 0x00, 0x00, 0x00,
  0x00, 0x00, 0x0c, 0x00, 0x08, 0x00, 0x00, 0x00, 0x00, 0x00, 0x04, 0x00,
  0x12, 0x00, 0x00, 0x00, 0x03, 0x00, 0x00, 0x00, 0x08, 0x00, 0x00, 0x00,
  0x0c, 0x01, 0x00, 0x00, 0x20, 0x00, 0x00, 0x00, 0x00, 0x00, 0x00, 0x00,
  0x00, 0x00, 0x00, 0x00, 0x00, 0x00, 0x00, 0x00, 0x00, 0x00, 0x00, 0x00,
  0x00, 0x00, 0x00, 0x00, 0x00, 0x00, 0x00, 0x00, 0x00, 0x00, 0x00, 0x00,
  0x00, 0x00, 0x00, 0x00, 0x00, 0x00, 0x00, 0x00, 0x00, 0x00, 0x00, 0x00,
  0x00, 0x00, 0x00, 0x00, 0x00, 0x00, 0x00, 0x00, 0x00, 0x00, 0x00, 0x00,
  0x00, 0x00, 0x00, 0x00, 0x00, 0x00, 0x00, 0x00, 0x00, 0x00, 0x00, 0x00,
  0x00, 0x00, 0x00, 0x00, 0x00, 0x00, 0x00, 0x00, 0x00, 0x00, 0x00, 0x00,
  0x00, 0x00, 0x00, 0x00, 0x00, 0x00, 0x00, 0x00, 0x00, 0x00, 0x00, 0x00,
  0x00, 0x00, 0x00, 0x00, 0x00, 0x00, 0x00, 0x00, 0x00, 0x00, 0x00, 0x00,
  0x00, 0x00, 0x00, 0x00, 0x00, 0x00, 0x00, 0x00, 0x00, 0x00, 0x00, 0x00,
  0x00, 0x00, 0x00, 0x00, 0x00, 0x00, 0x00, 0x00, 0x00, 0x00, 0x00, 0x00,
  0x00, 0x00, 0x00, 0x00, 0x00, 0x00, 0x00, 0x00, 0x00, 0x00, 0x00, 0x00,
  0x00, 0x00, 0x00, 0x00, 0x00, 0x00, 0x00, 0x00, 0x00, 0x00, 0x00, 0x00,
  0x00, 0x00, 0x00, 0x00, 0x00, 0x00, 0x00, 0x00, 0x00, 0x00, 0x00, 0x00,
  0x00, 0x00, 0x00, 0x00, 0x00, 0x00, 0x00, 0x00, 0x00, 0x00, 0x00, 0x00,
  0x00, 0x00, 0x00, 0x00, 0x00, 0x00, 0x00, 0x00, 0x00, 0x00, 0x00, 0x00,
  0x00, 0x00, 0x00, 0x00, 0x00, 0x00, 0x00, 0x00, 0x00, 0x00, 0x00, 0x00,
  0x00, 0x00, 0x00, 0x00, 0x00, 0x00, 0x00, 0x00, 0x00, 0x00, 0x00, 0x00,
  0x00, 0x00, 0x00, 0x00, 0x00, 0x00, 0x00, 0x00, 0x00, 0x00, 0x00, 0x00,
  0x00, 0x00, 0x00, 0x00, 0x00, 0x00, 0x00, 0x00, 0x00, 0x00, 0x00, 0x00,
  0x00, 0x00, 0x00, 0x00, 0x00, 0x00, 0x00, 0x00, 0x00, 0x00, 0x00, 0x00,
  0x00, 0x00, 0x00, 0x00, 0x00, 0x00, 0x00, 0x00, 0x00, 0x00, 0x00, 0x00,
  0x00, 0x00, 0x00, 0x00, 0x20, 0x00, 0x00, 0x00, 0xd0, 0x4c, 0x06, 0x3b,
  0x29, 0x86, 0x70, 0x3a, 0xec, 0xee, 0x9a, 0x3a, 0x68, 0xc8, 0x32, 0x3b,
  0x86, 0x5e, 0x7d, 0x3a, 0x00, 0xd5, 0x2d, 0x3b, 0xa9, 0x7f, 0x8e, 0x3a,
  0x92, 0xfb, 0x90, 0x3a, 0xe8, 0xf7, 0x8a, 0x3a, 0xf0, 0x6a, 0xf3, 0x3a,
  0x13, 0xd0, 0xb6, 0x3b, 0x07, 0x63, 0x37, 0x3b, 0xd0, 0x17, 0xe4, 0x3b,
  0x63, 0x1a, 0x81, 0x3a, 0xec, 0xd4, 0xa2, 0x3a, 0x9d, 0x8f, 0x8e, 0x3a,
  0x84, 0x22, 0xb6, 0x3a, 0x5c, 0x3a, 0xa9, 0x3a, 0xed, 0x6a, 0x82, 0x3b,
  0xb0, 0xbe, 0x2d, 0x3a, 0x65, 0x16, 0x3f, 0x3a, 0x21, 0x96, 0xbc, 0x3a,
  0x20, 0x35, 0x90, 0x3a, 0x37, 0xe4, 0x39, 0x3b, 0x56, 0xf5, 0x95, 0x3a,
  0x0e, 0x74, 0xb8, 0x3a, 0xe9, 0x38, 0x57, 0x3b, 0x03, 0x37, 0x7e, 0x3a,
  0xf5, 0x72, 0x7d, 0x3a, 0x10, 0x30, 0xbf, 0x3a, 0xc8, 0x51, 0x29, 0x3a,
  0x46, 0x23, 0x02, 0x3b, 0x39, 0x00, 0x00, 0x00, 0x73, 0x65, 0x71, 0x75,
  0x65, 0x6e, 0x74, 0x69, 0x61, 0x6c, 0x2f, 0x73, 0x65, 0x70, 0x61, 0x72,
  0x61, 0x62, 0x6c, 0x65, 0x5f, 0x63, 0x6f, 0x6e, 0x76, 0x32, 0x64, 0x5f,
  0x31, 0x2f, 0x73, 0x65, 0x70, 0x61, 0x72, 0x61, 0x62, 0x6c, 0x65, 0x5f,
  0x63, 0x6f, 0x6e, 0x76, 0x32, 0x64, 0x2f, 0x64, 0x65, 0x70, 0x74, 0x68,
  0x77, 0x69, 0x73, 0x65, 0x31, 0x00, 0x00, 0x00, 0x04, 0x00, 0x00, 0x00,
  0x01, 0x00, 0x00, 0x00, 0x03, 0x00, 0x00, 0x00, 0x03, 0x00, 0x00, 0x00,
  0x20, 0x00, 0x00, 0x00, 0x3e, 0xf6, 0xff, 0xff, 0x00, 0x00, 0x00, 0x01,
  0x14, 0x00, 0x00, 0x00, 0xa4, 0x01, 0x00, 0x00, 0x07, 0x00, 0x00, 0x00,
  0x00, 0x00, 0x00, 0x02, 0xd8, 0x01, 0x00, 0x00, 0x8c, 0xf5, 0xff, 0xff,
  0x08, 0x00, 0x00, 0x00, 0x08, 0x01, 0x00, 0x00, 0x20, 0x00, 0x00, 0x00,
  0x00, 0x00, 0x00, 0x00, 0x00, 0x00, 0x00, 0x00, 0x00, 0x00, 0x00, 0x00,
  0x00, 0x00, 0x00, 0x00, 0x00, 0x00, 0x00, 0x00, 0x00, 0x00, 0x00, 0x00,
  0x00, 0x00, 0x00, 0x00, 0x00, 0x00, 0x00, 0x00, 0x00, 0x00, 0x00, 0x00,
  0x00, 0x00, 0x00, 0x00, 0x00, 0x00, 0x00, 0x00, 0x00, 0x00, 0x00, 0x00,
  0x00, 0x00, 0x00, 0x00, 0x00, 0x00, 0x00, 0x00, 0x00, 0x00, 0x00, 0x00,
  0x00, 0x00, 0x00, 0x00, 0x00, 0x00, 0x00, 0x00, 0x00, 0x00, 0x00, 0x00,
  0x00, 0x00, 0x00, 0x00, 0x00, 0x00, 0x00, 0x00, 0x00, 0x00, 0x00, 0x00,
  0x00, 0x00, 0x00, 0x00, 0x00, 0x00, 0x00, 0x00, 0x00, 0x00, 0x00, 0x00,
  0x00, 0x00, 0x00, 0x00, 0x00, 0x00, 0x00, 0x00, 0x00, 0x00, 0x00, 0x00,
  0x00, 0x00, 0x00, 0x00, 0x00, 0x00, 0x00, 0x00, 0x00, 0x00, 0x00, 0x00,
  0x00, 0x00, 0x00, 0x00, 0x00, 0x00, 0x00, 0x00, 0x00, 0x00, 0x00, 0x00,
  0x00, 0x00, 0x00, 0x00, 0x00, 0x00, 0x00, 0x00, 0x00, 0x00, 0x00, 0x00,
  0x00, 0x00, 0x00, 0x00, 0x00, 0x00, 0x00, 0x00, 0x00, 0x00, 0x00, 0x00,
  0x00, 0x00, 0x00, 0x00, 0x00, 0x00, 0x00, 0x00, 0x00, 0x00, 0x00, 0x00,
  0x00, 0x00, 0x00, 0x00, 0x00, 0x00, 0x00, 0x00, 0x00, 0x00, 0x00, 0x00,
  0x00, 0x00, 0x00, 0x00, 0x00, 0x00, 0x00, 0x00, 0x00, 0x00, 0x00, 0x00,
  0x00, 0x00, 0x00, 0x00, 0x00, 0x00, 0x00, 0x00, 0x00, 0x00, 0x00, 0x00,
  0x00, 0x00, 0x00, 0x00, 0x00, 0x00, 0x00, 0x00, 0x00, 0x00, 0x00, 0x00,
  0x00, 0x00, 0x00, 0x00, 0x00, 0x00, 0x00, 0x00, 0x00, 0x00, 0x00, 0x00,
  0x00, 0x00, 0x00, 0x00, 0x00, 0x00, 0x00, 0x00, 0x00, 0x00, 0x00, 0x00,
  0x00, 0x00, 0x00, 0x00, 0x00, 0x00, 0x00, 0x00, 0x00, 0x00, 0x00, 0x00,
  0x00, 0x00, 0x00, 0x00, 0x20, 0x00, 0x00, 0x00, 0x1f, 0xe1, 0x00, 0x39,
  0xe1, 0xd0, 0x66, 0x38, 0x08, 0xae, 0x94, 0x38, 0x15, 0x91, 0x2b, 0x39,
  0x84, 0x24, 0x73, 0x38, 0xd5, 0xd0, 0x26, 0x39, 0x41, 0xbf, 0x88, 0x38,
  0x7f, 0x21, 0x8b, 0x38, 0xfa, 0x5b, 0x85, 0x38, 0xc2, 0x97, 0xe9, 0x38,
  0x1c, 0x6f, 0xaf, 0x39, 0x22, 0xfc, 0x2f, 0x39, 0xfa, 0xe2, 0xda, 0x39,
  0xc9, 0xc8, 0x77, 0x38, 0x6b, 0x42, 0x9c, 0x38, 0x90, 0xce, 0x88, 0x38,
  0x8f, 0xc8, 0xae, 0x38, 0xc4, 0x65, 0xa2, 0x38, 0xb3, 0x4e, 0x7a, 0x39,
  0x6c, 0xbb, 0x26, 0x38, 0xee, 0x5f, 0x37, 0x38, 0x82, 0xf9, 0xb4, 0x38,
  0x10, 0x63, 0x8a, 0x38, 0x70, 0x63, 0x32, 0x39, 0xd9, 0xe7, 0x8f, 0x38,
  0x24, 0x02, 0xb1, 0x38, 0x11, 0x89, 0x4e, 0x39, 0x44, 0xf4, 0x73, 0x38,
  0x20, 0x38, 0x73, 0x38, 0x90, 0x78, 0xb7, 0x38, 0x3e, 0x7c, 0x22, 0x38,
  0x2d, 0xc5, 0xf9, 0x38, 0x38, 0x00, 0x00, 0x00, 0x73, 0x65, 0x71, 0x75,
  0x65, 0x6e, 0x74, 0x69, 0x61, 0x6c, 0x2f, 0x73, 0x65, 0x70, 0x61, 0x72,
  0x61, 0x62, 0x6c, 0x65, 0x5f, 0x63, 0x6f, 0x6e, 0x76, 0x32, 0x64, 0x5f,
  0x31, 0x2f, 0x73, 0x65, 0x70, 0x61, 0x72, 0x61, 0x62, 0x6c, 0x65, 0x5f,
  0x63, 0x6f, 0x6e, 0x76, 0x32, 0x64, 0x2f, 0x64, 0x65, 0x70, 0x74, 0x68,
  0x77, 0x69, 0x73, 0x65, 0x00, 0x00, 0x00, 0x00, 0x01, 0x00, 0x00, 0x00,
  0x20, 0x00, 0x00, 0x00, 0x36, 0xf8, 0xff, 0xff, 0x00, 0x00, 0x00, 0x01,
  0x14, 0x00, 0x00, 0x00, 0x24, 0x03, 0x00, 0x00, 0x06, 0x00, 0x00, 0x00,
  0x00, 0x00, 0x00, 0x09, 0x4c, 0x03, 0x00, 0x00, 0x84, 0xf7, 0xff, 0xff,
  0x08, 0x00, 0x00, 0x00, 0x08, 0x02, 0x00, 0x00, 0x40, 0x00, 0x00, 0x00,
  0x00, 0x00, 0x00, 0x00, 0x00, 0x00, 0x00, 0x00, 0x00, 0x00, 0x00, 0x00,
  0x00, 0x00, 0x00, 0x00, 0x00, 0x00, 0x00, 0x00, 0x00, 0x00, 0x00, 0x00,
  0x00, 0x00, 0x00, 0x00, 0x00, 0x00, 0x00, 0x00, 0x00, 0x00, 0x00, 0x00,
  0x00, 0x00, 0x00, 0x00, 0x00, 0x00, 0x00, 0x00, 0x00, 0x00, 0x00, 0x00,
  0x00, 0x00, 0x00, 0x00, 0x00, 0x00, 0x00, 0x00, 0x00, 0x00, 0x00, 0x00,
  0x00, 0x00, 0x00, 0x00, 0x00, 0x00, 0x00, 0x00, 0x00, 0x00, 0x00, 0x00,
  0x00, 0x00, 0x00, 0x00, 0x00, 0x00, 0x00, 0x00, 0x00, 0x00, 0x00, 0x00,
  0x00, 0x00, 0x00, 0x00, 0x00, 0x00, 0x00, 0x00, 0x00, 0x00, 0x00, 0x00,
  0x00, 0x00, 0x00, 0x00, 0x00, 0x00, 0x00, 0x00, 0x00, 0x00, 0x00, 0x00,
  0x00, 0x00, 0x00, 0x00, 0x00, 0x00, 0x00, 0x00, 0x00, 0x00, 0x00, 0x00,
  0x00, 0x00, 0x00, 0x00, 0x00, 0x00, 0x00, 0x00, 0x00, 0x00, 0x00, 0x00,
  0x00, 0x00, 0x00, 0x00, 0x00, 0x00, 0x00, 0x00, 0x00, 0x00, 0x00, 0x00,
  0x00, 0x00, 0x00, 0x00, 0x00, 0x00, 0x00, 0x00, 0x00, 0x00, 0x00, 0x00,
  0x00, 0x00, 0x00, 0x00, 0x00, 0x00, 0x00, 0x00, 0x00, 0x00, 0x00, 0x00,
  0x00, 0x00, 0x00, 0x00, 0x00, 0x00, 0x00, 0x00, 0x00, 0x00, 0x00, 0x00,
  0x00, 0x00, 0x00, 0x00, 0x00, 0x00, 0x00, 0x00, 0x00, 0x00, 0x00, 0x00,
  0x00, 0x00, 0x00, 0x00, 0x00, 0x00, 0x00, 0x00, 0x00, 0x00, 0x00, 0x00,
  0x00, 0x00, 0x00, 0x00, 0x00, 0x00, 0x00, 0x00, 0x00, 0x00, 0x00, 0x00,
  0x00, 0x00, 0x00, 0x00, 0x00, 0x00, 0x00, 0x00, 0x00, 0x00, 0x00, 0x00,
  0x00, 0x00, 0x00, 0x00, 0x00, 0x00, 0x00, 0x00, 0x00, 0x00, 0x00, 0x00,
  0x00, 0x00, 0x00, 0x00, 0x00, 0x00, 0x00, 0x00, 0x00, 0x00, 0x00, 0x00,
  0x00, 0x00, 0x00, 0x00, 0x00, 0x00, 0x00, 0x00, 0x00, 0x00, 0x00, 0x00,
  0x00, 0x00, 0x00, 0x00, 0x00, 0x00, 0x00, 0x00, 0x00, 0x00, 0x00, 0x00,
  0x00, 0x00, 0x00, 0x00, 0x00, 0x00, 0x00, 0x00, 0x00, 0x00, 0x00, 0x00,
  0x00, 0x00, 0x00, 0x00, 0x00, 0x00, 0x00, 0x00, 0x00, 0x00, 0x00, 0x00,
  0x00, 0x00, 0x00, 0x00, 0x00, 0x00, 0x00, 0x00, 0x00, 0x00, 0x00, 0x00,
  0x00, 0x00, 0x00, 0x00, 0x00, 0x00, 0x00, 0x00, 0x00, 0x00, 0x00, 0x00,
  0x00, 0x00, 0x00, 0x00, 0x00, 0x00, 0x00, 0x00, 0x00, 0x00, 0x00, 0x00,
  0x00, 0x00, 0x00, 0x00, 0x00, 0x00, 0x00, 0x00, 0x00, 0x00, 0x00, 0x00,
  0x00, 0x00, 0x00, 0x00, 0x00, 0x00, 0x00, 0x00, 0x00, 0x00, 0x00, 0x00,
  0x00, 0x00, 0x00, 0x00, 0x00, 0x00, 0x00, 0x00, 0x00, 0x00, 0x00, 0x00,
  0x00, 0x00, 0x00, 0x00, 0x00, 0x00, 0x00, 0x00, 0x00, 0x00, 0x00, 0x00,
  0x00, 0x00, 0x00, 0x00, 0x00, 0x00, 0x00, 0x00, 0x00, 0x00, 0x00, 0x00,
  0x00, 0x00, 0x00, 0x00, 0x00, 0x00, 0x00, 0x00, 0x00, 0x00, 0x00, 0x00,
  0x00, 0x00, 0x00, 0x00, 0x00, 0x00, 0x00, 0x00, 0x00, 0x00, 0x00, 0x00,
  0x00, 0x00, 0x00, 0x00, 0x00, 0x00, 0x00, 0x00, 0x00, 0x00, 0x00, 0x00,
  0x00, 0x00, 0x00, 0x00, 0x00, 0x00, 0x00, 0x00, 0x00, 0x00, 0x00, 0x00,
  0x00, 0x00, 0x00, 0x00, 0x00, 0x00, 0x00, 0x00, 0x00, 0x00, 0x00, 0x00,
  0x00, 0x00, 0x00, 0x00, 0x00, 0x00, 0x00, 0x00, 0x00, 0x00, 0x00, 0x00,
  0x00, 0x00, 0x00, 0x00, 0x00, 0x00, 0x00, 0x00, 0x00, 0x00, 0x00, 0x00,
  0x00, 0x00, 0x00, 0x00, 0x00, 0x00, 0x00, 0x00, 0x00, 0x00, 0x00, 0x00,
  0x00, 0x00, 0x00, 0x00, 0x00, 0x00, 0x00, 0x00, 0x00, 0x00, 0x00, 0x00,
  0x00, 0x00, 0x00, 0x00, 0x00, 0x00, 0x00, 0x00, 0x40, 0x00, 0x00, 0x00,
  0x1b, 0xf2, 0xab, 0x3b, 0x7a, 0x79, 0x98, 0x3b, 0x7b, 0x4c, 0x9c, 0x3b,
  0xdc, 0x2e, 0x97, 0x3b, 0x0a, 0x32, 0x9b, 0x3b, 0x66, 0xda, 0xae, 0x3b,
  0xd2, 0xe8, 0xa1, 0x3b, 0xd3, 0x62, 0xaa, 0x3b, 0xbb, 0x4d, 0x93, 0x3b,
  0xe3, 0x71, 0xac, 0x3b, 0x0f, 0xfa, 0x93, 0x3b, 0x79, 0xc9, 0xb6, 0x3b,
  0xad, 0x4f, 0x96, 0x3b, 0x5f, 0x75, 0x90, 0x3c, 0xde, 0xe5, 0xa4, 0x3b,
  0xa4, 0xae, 0x1d, 0x3a, 0x3b, 0xe2, 0x99, 0x3b, 0x45, 0x15, 0xa6, 0x3b,
  0x7c, 0xbc, 0xb3, 0x3b, 0x21, 0xec, 0xbb, 0x3b, 0xd0, 0x2e, 0x9e, 0x3b,
  0x75, 0xed, 0xa0, 0x3b, 0x19, 0x3a, 0x95, 0x3b, 0xae, 0x0f, 0xb0, 0x3b,
  0x45, 0x04, 0xa4, 0x3b, 0x35, 0x41, 0xab, 0x3b, 0x8d, 0x16, 0xac, 0x3b,
  0xb3, 0xb1, 0xb2, 0x3b, 0x5b, 0xcb, 0x9f, 0x3b, 0xac, 0x4a, 0xab, 0x3b,
  0x9c, 0xaa, 0xab, 0x3b, 0x24, 0xee, 0x94, 0x3b, 0xa2, 0x52, 0xac, 0x3b,
  0xb6, 0xef, 0xa2, 0x3b, 0xf7, 0xc5, 0xa3, 0x3b, 0x03, 0xa8, 0xad, 0x3b,
  0x2b, 0x9f, 0xa4, 0x3b, 0x1f, 0x33, 0xab, 0x3b, 0x49, 0xb5, 0xa5, 0x3b,
  0x7f, 0x1a, 0x93, 0x3b, 0x14, 0xc1, 0x90, 0x3b, 0x96, 0x89, 0x9b, 0x3b,
  0x9c, 0x6f, 0xab, 0x3b, 0x96, 0x50, 0xd5, 0x39, 0x24, 0xe0, 0xb3, 0x3b,
  0x90, 0x4e, 0x97, 0x3b, 0x99, 0x73, 0xa8, 0x3b, 0x54, 0x4d, 0xa9, 0x3b,
  0x69, 0xd7, 0xb1, 0x3b, 0xbd, 0x25, 0xb0, 0x3b, 0x81, 0x45, 0xb6, 0x3b,
  0xcd, 0x88, 0xa9, 0x3b, 0x9e, 0x63, 0x99, 0x3b, 0xe2, 0x82, 0xb7, 0x3b,
  0x55, 0x97, 0x95, 0x3b, 0xdc, 0x67, 0xa9, 0x3b, 0xea, 0x81, 0xad, 0x3b,
  0x02, 0xe9, 0xb2, 0x3b, 0x4b, 0xa6, 0xa1, 0x3b, 0xf3, 0xb2, 0x9b, 0x3b,
  0xb9, 0xaa, 0x8e, 0x3b, 0xb2, 0x8c, 0xa5, 0x3b, 0x29, 0x4d, 0x99, 0x3b,
  0xc5, 0x3f, 0xa7, 0x3b, 0x2e, 0x00, 0x00, 0x00, 0x73, 0x65, 0x71, 0x75,
  0x65, 0x6e, 0x74, 0x69, 0x61, 0x6c, 0x2f, 0x73, 0x65, 0x70, 0x61, 0x72,
  0x61, 0x62, 0x6c, 0x65, 0x5f, 0x63, 0x6f, 0x6e, 0x76, 0x32, 0x64, 0x5f,
  0x31, 0x2f, 0x73, 0x65, 0x70, 0x61, 0x72, 0x61, 0x62, 0x6c, 0x65, 0x5f,
  0x63, 0x6f, 0x6e, 0x76, 0x32, 0x64, 0x00, 0x00, 0x04, 0x00, 0x00, 0x00,
  0x40, 0x00, 0x00, 0x00, 0x01, 0x00, 0x00, 0x00, 0x01, 0x00, 0x00, 0x00,
  0x20, 0x00, 0x00, 0x00, 0xae, 0xfb, 0xff, 0xff, 0x00, 0x00, 0x00, 0x01,
  0x14, 0x00, 0x00, 0x00, 0x28, 0x03, 0x00, 0x00, 0x05, 0x00, 0x00, 0x00,
  0x00, 0x00, 0x00, 0x02, 0x58, 0x03, 0x00, 0x00, 0xfc, 0xfa, 0xff, 0xff,
  0x08, 0x00, 0x00, 0x00, 0x0c, 0x02, 0x00, 0x00, 0x40, 0x00, 0x00, 0x00,
  0x00, 0x00, 0x00, 0x00, 0x00, 0x00, 0x00, 0x00, 0x00, 0x00, 0x00, 0x00,
  0x00, 0x00, 0x00, 0x00, 0x00, 0x00, 0x00, 0x00, 0x00, 0x00, 0x00, 0x00,
  0x00, 0x00, 0x00, 0x00, 0x00, 0x00, 0x00, 0x00, 0x00, 0x00, 0x00, 0x00,
  0x00, 0x00, 0x00, 0x00, 0x00, 0x00, 0x00, 0x00, 0x00, 0x00, 0x00, 0x00,
  0x00, 0x00, 0x00, 0x00, 0x00, 0x00, 0x00, 0x00, 0x00, 0x00, 0x00, 0x00,
  0x00, 0x00, 0x00, 0x00, 0x00, 0x00, 0x00, 0x00, 0x00, 0x00, 0x00, 0x00,
  0x00, 0x00, 0x00, 0x00, 0x00, 0x00, 0x00, 0x00, 0x00, 0x00, 0x00, 0x00,
  0x00, 0x00, 0x00, 0x00, 0x00, 0x00, 0x00, 0x00, 0x00, 0x00, 0x00, 0x00,
  0x00, 0x00, 0x00, 0x00, 0x00, 0x00, 0x00, 0x00, 0x00, 0x00, 0x00, 0x00,
  0x00, 0x00, 0x00, 0x00, 0x00, 0x00, 0x00, 0x00, 0x00, 0x00, 0x00, 0x00,
  0x00, 0x00, 0x00, 0x00, 0x00, 0x00, 0x00, 0x00, 0x00, 0x00, 0x00, 0x00,
  0x00, 0x00, 0x00, 0x00, 0x00, 0x00, 0x00, 0x00, 0x00, 0x00, 0x00, 0x00,
  0x00, 0x00, 0x00, 0x00, 0x00, 0x00, 0x00, 0x00, 0x00, 0x00, 0x00, 0x00,
  0x00, 0x00, 0x00, 0x00, 0x00, 0x00, 0x00, 0x00, 0x00, 0x00, 0x00, 0x00,
  0x00, 0x00, 0x00, 0x00, 0x00, 0x00, 0x00, 0x00, 0x00, 0x00, 0x00, 0x00,
  0x00, 0x00, 0x00, 0x00, 0x00, 0x00, 0x00, 0x00, 0x00, 0x00, 0x00, 0x00,
  0x00, 0x00, 0x00, 0x00, 0x00, 0x00, 0x00, 0x00, 0x00, 0x00, 0x00, 0x00,
  0x00, 0x00, 0x00, 0x00, 0x00, 0x00, 0x00, 0x00, 0x00, 0x00, 0x00, 0x00,
  0x00, 0x00, 0x00, 0x00, 0x00, 0x00, 0x00, 0x00, 0x00, 0x00, 0x00, 0x00,
  0x00, 0x00, 0x00, 0x00, 0x00, 0x00, 0x00, 0x00, 0x00, 0x00, 0x00, 0x00,
  0x00, 0x00, 0x00, 0x00, 0x00, 0x00, 0x00, 0x00, 0x00, 0x00, 0x00, 0x00,
  0x00, 0x00, 0x00, 0x00, 0x00, 0x00, 0x00, 0x00, 0x00, 0x00, 0x00, 0x00,
  0x00, 0x00, 0x00, 0x00, 0x00, 0x00, 0x00, 0x00, 0x00, 0x00, 0x00, 0x00,
  0x00, 0x00, 0x00, 0x00, 0x00, 0x00, 0x00, 0x00, 0x00, 0x00, 0x00, 0x00,
  0x00, 0x00, 0x00, 0x00, 0x00, 0x00, 0x00, 0x00, 0x00, 0x00, 0x00, 0x00,
  0x00, 0x00, 0x00, 0x00, 0x00, 0x00, 0x00, 0x00, 0x00, 0x00, 0x00, 0x00,
  0x00, 0x00, 0x00, 0x00, 0x00, 0x00, 0x00, 0x00, 0x00, 0x00, 0x00, 0x00,
  0x00, 0x00, 0x00, 0x00, 0x00, 0x00, 0x00, 0x00, 0x00, 0x00, 0x00, 0x00,
  0x00, 0x00, 0x00, 0x00, 0x00, 0x00, 0x00, 0x00, 0x00, 0x00, 0x00, 0x00,
  0x00, 0x00, 0x00, 0x00, 0x00, 0x00, 0x00, 0x00, 0x00, 0x00, 0x00, 0x00,
  0x00, 0x00, 0x00, 0x00, 0x00, 0x00, 0x00, 0x00, 0x00, 0x00, 0x00, 0x00,
  0x00, 0x00, 0x00, 0x00, 0x00, 0x00, 0x00, 0x00, 0x00, 0x00, 0x00, 0x00,
  0x00, 0x00, 0x00, 0x00, 0x00, 0x00, 0x00, 0x00, 0x00, 0x00, 0x00, 0x00,
  0x00, 0x00, 0x00, 0x00, 0x00, 0x00, 0x00, 0x00, 0x00, 0x00, 0x00, 0x00,
  0x00, 0x00, 0x00, 0x00, 0x00, 0x00, 0x00, 0x00, 0x00, 0x00, 0x00, 0x00,
  0x00, 0x00, 0x00, 0x00, 0x00, 0x00, 0x00, 0x00, 0x00, 0x00, 0x00, 0x00,
  0x00, 0x00, 0x00, 0x00, 0x00, 0x00, 0x00, 0x00, 0x00, 0x00, 0x00, 0x00,
  0x00, 0x00, 0x00, 0x00, 0x00, 0x00, 0x00, 0x00, 0x00, 0x00, 0x00, 0x00,
  0x00, 0x00, 0x00, 0x00, 0x00, 0x00, 0x00, 0x00, 0x00, 0x00, 0x00, 0x00,
  0x00, 0x00, 0x00, 0x00, 0x00, 0x00, 0x00, 0x00, 0x00, 0x00, 0x00, 0x00,
  0x00, 0x00, 0x00, 0x00, 0x00, 0x00, 0x00, 0x00, 0x00, 0x00, 0x00, 0x00,
  0x00, 0x00, 0x00, 0x00, 0x00, 0x00, 0x00, 0x00, 0x00, 0x00, 0x00, 0x00,
  0x00, 0x00, 0x00, 0x00, 0x00, 0x00, 0x00, 0x00, 0x00, 0x00, 0x00, 0x00,
  0x40, 0x00, 0x00, 0x00, 0xdf, 0xf6, 0x9a, 0x39, 0x87, 0x6a, 0x89, 0x39,
  0xd8, 0xdc, 0x8c, 0x39, 0x8f, 0x40, 0x88, 0x39, 0x4c, 0xde, 0x8b, 0x39,
  0xa9, 0x95, 0x9d, 0x39, 0x54, 0xeb, 0x91, 0x39, 0x06, 0x8f, 0x99, 0x39,
  0x83, 0xc1, 0x84, 0x39, 0x09, 0x6a, 0x9b, 0x39, 0xd2, 0x5c, 0x85, 0x39,
  0x25, 0xbc, 0xa4, 0x39, 0x6b, 0x77, 0x87, 0x39, 0x16, 0x31, 0x82, 0x3a,
  0xd2, 0x9c, 0x94, 0x39, 0x07, 0x1c, 0x0e, 0x38, 0xa7, 0xaf, 0x8a, 0x39,
  0x42, 0xae, 0x95, 0x39, 0x49, 0xfc, 0xa1, 0x39, 0xf7, 0x5c, 0xa9, 0x39,
  0x8a, 0x8f, 0x8e, 0x39, 0xca, 0x08, 0x91, 0x39, 0x41, 0x7d, 0x86, 0x39,
  0x65, 0xac, 0x9e, 0x39, 0x81, 0xd1, 0x93, 0x39, 0x72, 0x57, 0x9a, 0x39,
  0xb8, 0x17, 0x9b, 0x39, 0xd9, 0x0b, 0xa1, 0x39, 0x57, 0x03, 0x90, 0x39,
  0xf9, 0x5f, 0x9a, 0x39, 0x70, 0xb6, 0x9a, 0x39, 0xcc, 0x38, 0x86, 0x39,
  0xde, 0x4d, 0x9b, 0x39, 0x42, 0xd8, 0x92, 0x39, 0x5a, 0x99, 0x93, 0x39,
  0x88, 0x81, 0x9c, 0x39, 0x1a, 0x5d, 0x94, 0x39, 0xc0, 0x4a, 0x9a, 0x39,
  0xc1, 0x57, 0x95, 0x39, 0x57, 0x93, 0x84, 0x39, 0x51, 0x75, 0x82, 0x39,
  0x32, 0x2d, 0x8c, 0x39, 0x43, 0x81, 0x9a, 0x39, 0x6f, 0x3f, 0xc0, 0x37,
  0x6c, 0x1c, 0xa2, 0x39, 0x22, 0x5d, 0x88, 0x39, 0xb5, 0xd0, 0x97, 0x39,
  0xef, 0x94, 0x98, 0x39, 0x1e, 0x47, 0xa0, 0x39, 0x46, 0xc0, 0x9e, 0x39,
  0x35, 0x45, 0xa4, 0x39, 0x88, 0xca, 0x98, 0x39, 0x8b, 0x3d, 0x8a, 0x39,
  0x3e, 0x63, 0xa5, 0x39, 0x48, 0xd1, 0x86, 0x39, 0xd8, 0xac, 0x98, 0x39,
  0x32, 0x5f, 0x9c, 0x39, 0xb2, 0x3d, 0xa1, 0x39, 0x5f, 0xaf, 0x91, 0x39,
  0x79, 0x52, 0x8c, 0x39, 0xbc, 0x93, 0x80, 0x39, 0x2c, 0x33, 0x95, 0x39,
  0x4e, 0x29, 0x8a, 0x39, 0x47, 0xbb, 0x96, 0x39, 0x34, 0x00, 0x00, 0x00,
  0x73, 0x65, 0x71, 0x75, 0x65, 0x6e, 0x74, 0x69, 0x61, 0x6c, 0x2f, 0x73,
  0x65, 0x70, 0x61, 0x72, 0x61, 0x62, 0x6c, 0x65, 0x5f, 0x63, 0x6f, 0x6e,
  0x76, 0x32, 0x64, 0x5f, 0x31, 0x2f, 0x42, 0x69, 0x61, 0x73, 0x41, 0x64,
  0x64, 0x2f, 0x52, 0x65, 0x61, 0x64, 0x56, 0x61, 0x72, 0x69, 0x61, 0x62,
  0x6c, 0x65, 0x4f, 0x70, 0x00, 0x00, 0x00, 0x00, 0x01, 0x00, 0x00, 0x00,
  0x40, 0x00, 0x00, 0x00, 0x26, 0xff, 0xff, 0xff, 0x00, 0x00, 0x00, 0x01,
  0x14, 0x00, 0x00, 0x00, 0x34, 0x00, 0x00, 0x00, 0x04, 0x00, 0x00, 0x00,
  0x00, 0x00, 0x00, 0x09, 0x44, 0x00, 0x00, 0x00, 0x74, 0xfe, 0xff, 0xff,
  0x08, 0x00, 0x00, 0x00, 0x14, 0x00, 0x00, 0x00, 0x01, 0x00, 0x00, 0x00,
  0x00, 0x00, 0x00, 0x00, 0x00, 0x00, 0x00, 0x00, 0x00, 0x00, 0x00, 0x00,
  0x01, 0x00, 0x00, 0x00, 0x4e, 0x41, 0xc0, 0x3b, 0x17, 0x00, 0x00, 0x00,
  0x73, 0x65, 0x71, 0x75, 0x65, 0x6e, 0x74, 0x69, 0x61, 0x6c, 0x2f, 0x64,
  0x65, 0x6e, 0x73, 0x65, 0x2f, 0x4d, 0x61, 0x74, 0x4d, 0x75, 0x6c, 0x00,
  0x02, 0x00, 0x00, 0x00, 0x02, 0x00, 0x00, 0x00, 0x40, 0x00, 0x00, 0x00,
  0x8e, 0xff, 0xff, 0xff, 0x00, 0x00, 0x00, 0x01, 0x14, 0x00, 0x00, 0x00,
  0x30, 0x00, 0x00, 0x00, 0x03, 0x00, 0x00, 0x00, 0x00, 0x00, 0x00, 0x02,
  0x50, 0x00, 0x00, 0x00, 0xdc, 0xfe, 0xff, 0xff, 0x08, 0x00, 0x00, 0x00,
  0x10, 0x00, 0x00, 0x00, 0x01, 0x00, 0x00, 0x00, 0x00, 0x00, 0x00, 0x00,
  0x00, 0x00, 0x00, 0x00, 0x01, 0x00, 0x00, 0x00, 0x2e, 0x87, 0x52, 0x38,
  0x27, 0x00, 0x00, 0x00, 0x73, 0x65, 0x71, 0x75, 0x65, 0x6e, 0x74, 0x69,
  0x61, 0x6c, 0x2f, 0x64, 0x65, 0x6e, 0x73, 0x65, 0x2f, 0x42, 0x69, 0x61,
  0x73, 0x41, 0x64, 0x64, 0x2f, 0x52, 0x65, 0x61, 0x64, 0x56, 0x61, 0x72,
  0x69, 0x61, 0x62, 0x6c, 0x65, 0x4f, 0x70, 0x00, 0x01, 0x00, 0x00, 0x00,
  0x02, 0x00, 0x00, 0x00, 0x00, 0x00, 0x16, 0x00, 0x1c, 0x00, 0x18, 0x00,
  0x17, 0x00, 0x10, 0x00, 0x0c, 0x00, 0x08, 0x00, 0x00, 0x00, 0x00, 0x00,
  0x00, 0x00, 0x07, 0x00, 0x16, 0x00, 0x00, 0x00, 0x00, 0x00, 0x00, 0x01,
  0x18, 0x00, 0x00, 0x00, 0x18, 0x00, 0x00, 0x00, 0x02, 0x00, 0x00, 0x00,
  0x00, 0x00, 0x00, 0x02, 0x4c, 0x00, 0x00, 0x00, 0x04, 0x00, 0x04, 0x00,
  0x04, 0x00, 0x00, 0x00, 0x3a, 0x00, 0x00, 0x00, 0x73, 0x65, 0x71, 0x75,
  0x65, 0x6e, 0x74, 0x69, 0x61, 0x6c, 0x2f, 0x67, 0x6c, 0x6f, 0x62, 0x61,
  0x6c, 0x5f, 0x61, 0x76, 0x65, 0x72, 0x61, 0x67, 0x65, 0x5f, 0x70, 0x6f,
  0x6f, 0x6c, 0x69, 0x6e, 0x67, 0x32, 0x64, 0x2f, 0x4d, 0x65, 0x61, 0x6e,
  0x2f, 0x72, 0x65, 0x64, 0x75, 0x63, 0x74, 0x69, 0x6f, 0x6e, 0x5f, 0x69,
  0x6e, 0x64, 0x69, 0x63, 0x65, 0x73, 0x00, 0x00, 0x01, 0x00, 0x00, 0x00,
  0x02, 0x00, 0x00, 0x00, 0x00, 0x00, 0x16, 0x00, 0x20, 0x00, 0x1c, 0x00,
  0x1b, 0x00, 0x14, 0x00, 0x10, 0x00, 0x0c, 0x00, 0x00, 0x00, 0x00, 0x00,
  0x08, 0x00, 0x07, 0x00, 0x16, 0x00, 0x00, 0x00, 0x00, 0x00, 0x00, 0x01,
  0x18, 0x00, 0x00, 0x00, 0x34, 0x00, 0x00, 0x00, 0x54, 0x00, 0x00, 0x00,
  0x01, 0x00, 0x00, 0x00, 0x00, 0x00, 0x00, 0x09, 0x6c, 0x00, 0x00, 0x00,
  0x04, 0x00, 0x00, 0x00, 0xff, 0xff, 0xff, 0xff, 0x40, 0x00, 0x00, 0x00,
  0x40, 0x00, 0x00, 0x00, 0x01, 0x00, 0x00, 0x00, 0x0c, 0x00, 0x0c, 0x00,
  0x00, 0x00, 0x00, 0x00, 0x08, 0x00, 0x04, 0x00, 0x0c, 0x00, 0x00, 0x00,
  0x08, 0x00, 0x00, 0x00, 0x14, 0x00, 0x00, 0x00, 0x01, 0x00, 0x00, 0x00,
  0x80, 0xff, 0xff, 0xff, 0xff, 0xff, 0xff, 0xff, 0x00, 0x00, 0x00, 0x00,
  0x01, 0x00, 0x00, 0x00, 0x81, 0x80, 0x80, 0x3b, 0x1e, 0x00, 0x00, 0x00,
  0x73, 0x65, 0x72, 0x76, 0x69, 0x6e, 0x67, 0x5f, 0x64, 0x65, 0x66, 0x61,
  0x75, 0x6c, 0x74, 0x5f, 0x63, 0x6f, 0x6e, 0x76, 0x32, 0x64, 0x5f, 0x69,
  0x6e, 0x70, 0x75, 0x74, 0x3a, 0x30, 0x00, 0x00, 0x04, 0x00, 0x00, 0x00,
  0x01, 0x00, 0x00, 0x00, 0x40, 0x00, 0x00, 0x00, 0x40, 0x00, 0x00, 0x00,
  0x01, 0x00, 0x00, 0x00, 0x05, 0x00, 0x00, 0x00, 0x60, 0x00, 0x00, 0x00,
  0x40, 0x00, 0x00, 0x00, 0x2c, 0x00, 0x00, 0x00, 0x18, 0x00, 0x00, 0x00,
  0x04, 0x00, 0x00, 0x00, 0xc0, 0xff, 0xff, 0xff, 0x09, 0x00, 0x00, 0x00,
  0x04, 0x00, 0x00, 0x00, 0x00, 0x00, 0x00, 0x09, 0xd0, 0xff, 0xff, 0xff,
  0x28, 0x00, 0x00, 0x00, 0x02, 0x00, 0x00, 0x00, 0x00, 0x00, 0x00, 0x28,
  0xe0, 0xff, 0xff, 0xff, 0x04, 0x00, 0x00, 0x00, 0x03, 0x00, 0x00, 0x00,
  0x00, 0x00, 0x00, 0x04, 0xf0, 0xff, 0xff, 0xff, 0x11, 0x00, 0x00, 0x00,
  0x02, 0x00, 0x00, 0x00, 0x00, 0x00, 0x00, 0x11, 0x0c, 0x00, 0x10, 0x00,
  0x0f, 0x00, 0x00, 0x00, 0x08, 0x00, 0x04, 0x00, 0x0c, 0x00, 0x00, 0x00,
  0x03, 0x00, 0x00, 0x00, 0x03, 0x00, 0x00, 0x00, 0x00, 0x00, 0x00, 0x03
};
unsigned int quantized_model_tflite_len = 15072;
